, 10625991
. 7863448
the 5926165
in 3292655
of 3108552
die 2873538
der 2761959
and 2759661
to 2672154
und 2605745
a 1752374
@-@ 1509899
is 1397588
that 1120938
zu 1059122
for 1002343
den 995186
von 959407
ist 838020
&quot; 832977
- 818591
on 813457
für 805725
das 687544
an 676051
mit 675975
be 674152
with 670593
des 658882
auf 658710
are 648277
( 646748
) 641396
The 635174
I 613117
as 595471
eine 591969
this 576498
nicht 531322
im 528915
: 528462
it 520455
es 506476
we 506285
werden 504078
Sie 500700
dass 498433
have 481334
by 477152
not 469168
ein 462550
dem 460289
wir 456870
sich 446572
Die 436039
will 428559
which 416402
you 415776
auch 399804
from 368819
at 368152
or 366576
sind 365079
wird 350351
was 349855
has 347483
&apos;s 336291
als 330666
ich 317130
um 313545
European 300187
In 298358
all 293526
oder 289634
can 286623
haben 285351
über 280316
also 279658
our 275645
so 273171
hat 263169
/ 261935
einer 260336
sie 259458
wie 256861
? 249234
Union 246289
zur 241724
einen 233393
&apos; 228571
bei 224957
! 223474
Ich 223379
aus 218799
Das 214638
its 210771
können 206712
would 203494
but 201637
your 201591
We 200230
er 196181
more 193571
am 193267
EU 193101
their 189493
been 187292
one 186329
einem 184662
diese 183460
Mr 180271
nach 179030
should 177973
Wir 177829
This 176754
uns 176134
zum 175064
; 173704
nur 173019
It 171384
durch 168117
Commission 167968
kann 165907
dieser 162747
must 160493
Kommission 160041
daß 159639
Der 156391
do 151404
vor 150120
Es 148378
they 148175
President 147193
noch 146964
there 144967
... 143488
new 142381
other 142157
Herr 141922
like 141445
very 140942
wenn 140379
time 139260
aber 138543
only 138346
müssen 137643
us 136723
wurde 136313
un@@ 135063
about 134966
sein 133392
s 129125
these 127529
man 125089
sehr 124634
up 124446
Hotel 122317
Europäischen 121627
diesem 121611
who 120810
de 119576
% 118306
no 118029
if 117650
Europe 116495
Parliament 116472
alle 112142
mehr 112070
war 110731
out 110079
möchte 109803
any 109345
people 109102
States 107830
into 106068
countries 105974
Member 105617
ver@@ 105417
an@@ 105085
report 105036
such 103544
what 102924
er@@ 101925
eines 101874
2 99597
well 99105
Council 98399
than 98084
bis 98037
need 97924
ihre 97869
Präsident 97632
my 96406
were 96378
A 95938
use 95397
1 94836
re@@ 94109
when 93922
dieses 93757
vom 91886
important 91798
now 91763
some 91538
work 90581
in@@ 90492
sowie 89802
unter 89801
make 89769
gibt 89711
them 89379
first 89018
because 88920
most 88427
between 88375
Bericht 87733
i 87242
S@@ 86749
many 86735
Parlament 86153
muss 85929
e 85877
zwischen 85570
o 85521
en@@ 85216
his 84804
system 84581
take 84488
en 84295
hier 84055
Mitgliedstaaten 83521
ten 81679
way 81665
keine 81068
3 81013
te 80537
unsere 80345
support 80048
P@@ 80031
Europa 79356
made 78551
policy 77568
those 77166
anderen 76842
years 76650
s@@ 76563
information 76211
world 75684
da 75652
t 75625
T@@ 75486
two 75370
B@@ 75306
K@@ 75218
k@@ 75207
just 74986
Ihnen 74566
If 74406
ab@@ 74014
over 73264
Wenn 73046
dies 72994
ge@@ 72288
able 72248
being 71921
immer 71289
he 70946
diesen 70868
&#91; 70823
t@@ 70652
dann 70647
gegen 70628
damit 70417
&#93; 70299
had 70007
where 69721
hotel 69487
Frau 69238
C@@ 68875
even 68320
d@@ 67686
F@@ 67456
G@@ 67375
be@@ 67314
A@@ 67158
D@@ 67146
may 67067
wurden 66879
end 66693
right 66374
year 66367
Europäische 66343
M@@ 65970
4 65392
H@@ 65036
habe 65027
Diese 64961
order 64826
Im 64527
sondern 64510
m 64438
economic 64217
market 64027
political 63986
f@@ 63695
Zeit 63644
part 63622
unserer 63250
see 62936
E@@ 62207
same 61932
jedoch 61769
L@@ 61227
Menschen 61215
here 61189
rights 60855
N@@ 60692
seine 60628
area 60349
how 60298
possible 60241
good 60121
heute 60032
5 60012
development 59844
me 59838
europäischen 59711
As 59619
Ihre 59484
neue 59448
own 59042
through 58724
could 58490
ing 58373
against 58296
place 58232
b@@ 58203
An@@ 58135
Ver@@ 57918
country 57891
therefore 57728
bereits 57684
want 57258
mich 57163
10 57011
Rat 56943
Jahr 56894
sollte 56851
then 56657
g@@ 56648
within 56588
ihrer 56483
z@@ 56046
You 55975
aus@@ 55917
o@@ 55805
ein@@ 55694
international 55566
after 55514
denen 55501
much 55355
neuen 55214
y 54996
both 54969
does 54953
There 54927
n@@ 54918
under 54757
al@@ 54679
Frage 54649
public 54625
Entwicklung 54590
R@@ 54579
Jahren 54353
andere 54294
sollten 54279
For 54256
W@@ 54196
ohne 54174
p@@ 53991
e@@ 53852
ch@@ 53752
m@@ 53731
point 53707
&amp; 53332
used 52831
social 52495
last 52369
fact 52044
c@@ 52024
ter 51964
say 51784
without 51743
ed 51533
high 51412
find 51330
de@@ 51265
machen 51109
V@@ 50859
ganz 50707
O@@ 50486
allen 50440
zwei 50414
still 50301
believe 50289
finden 50256
services 50031
d 49973
weil 49873
number 49821
long 49738
free 49699
future 49665
know 49354
st@@ 49277
geht 49271
already 48971
ers 48489
Ab@@ 48416
sch@@ 48253
view 48126
Welt 48043
dazu 48030
today 47886
denn 47851
Maßnahmen 47848
Unternehmen 47808
set 47675
viele 47624
al 47604
different 47468
jetzt 47317
That 47313
u@@ 47223
great 47111
v@@ 47049
think 46854
cannot 46822
But 46802
i@@ 46733
too 46636
darauf 46580
course 46484
ts 46274
case 46026
human 45955
available 45941
level 45915
before 45856
financial 45788
process 45617
Commissioner 45614
di@@ 45609
Herrn 45567
Mit 45549
ation 45125
Bereich 45073
dafür 44940
Ein 44903
situation 44875
bietet 44829
liegt 44525
US 44475
service 44449
products 44353
ent@@ 44266
y@@ 44194
national 44112
&#124; 44090
einige 44052
debate 43967
2009 43950
seiner 43931
le 43862
20 43827
wieder 43789
proposal 43762
ung 43648
selbst 43541
issue 43393
data 43392
el@@ 43363
li@@ 43212
auf@@ 43201
bin 43169
Informationen 42693
quality 42604
würde 42590
question 42566
Z@@ 42492
said 42356
example 42318
a@@ 42308
schon 42190
Arbeit 42137
sagen 42061
ihren 42032
meine 42007
30 41898
l@@ 41881
get 41873
mir 41730
zu@@ 41666
Lage 41663
I@@ 41564
means 41528
So 41519
ti@@ 41450
Land 41445
allem 41289
day 41246
Länder 41175
Dies 41168
ihr 41133
China 41066
ar@@ 40954
per 40905
wollen 40899
J@@ 40864
l 40839
6 40692
Committee 40685
ob 40591
viel 40557
clear 40528
Sch@@ 40269
measures 40210
since 40188
problem 40035
particular 40031
Jahre 39982
go 39748
h@@ 39702
However 39640
gen 39599
citizens 39593
über@@ 39584
including 39579
during 39328
Und 39211
best 39102
k 39059
based 39015
offers 39005
geben 38992
her 38983
insbesondere 38964
7 38940
common 38923
unseren 38922
energy 38906
si@@ 38843
agreement 38779
help 38731
Eine 38640
every 38387
vor@@ 38355
on@@ 38315
doch 38292
Parlaments 38118
room 38087
r@@ 38020
während 38000
stehen 37986
Wie 37924
n 37916
All 37747
nun 37745
put 37645
access 37524
Ein@@ 37520
Re@@ 37502
give 37480
taken 37476
areas 37467
business 37403
ate 37400
small 37400
position 37397
each 37378
Unterstützung 37256
-@@ 37144
ensure 37086
Ländern 37056
or@@ 37009
etwas 36976
.@@ 36876
ab 36871
next 36835
wo 36784
8 36685
Rahmen 36633
möglich 36609
far 36457
ge 36430
stellen 36406
15 36356
lassen 36353
Vorschlag 36315
three 36292
problems 36247
es@@ 36214
Zusammenarbeit 36202
u 36137
le@@ 36059
ra@@ 36045
security 36013
provide 35908
j@@ 35890
gut 35882
politischen 35863
tes 35849
Für 35845
Internet 35840
el 35754
Our 35742
Bürger 35734
kommen 35709
ungs@@ 35630
Art 35610
few 35596
ri@@ 35568
Aus@@ 35459
waren 35426
seit 35423
cooperation 35323
vote 35275
large 35260
further 35229
necessary 35228
ungen 35118
2010 35021
city 35019
why 35004
again 34988
se 34986
change 34931
systems 34840
come 34826
ro@@ 34775
On 34741
form 34718
g 34686
given 34619
tun 34571
E 34515
Fall 34506
real 34467
bar 34329
offer 34326
In@@ 34270
2008 34268
wichtig 34165
erhalten 34137
hope 34122
law 34122
steht 34084
besteht 34059
wäre 34036
Group 34035
Namen 33932
shall 33811
however 33806
Problem 33797
soll 33764
Teil 33761
rooms 33702
back 33696
United 33687
action 33598
Ziel 33548
ersten 33455
Community 33435
b 33358
um@@ 33286
USA 33196
Kollegen 33134
ern 33067
Fragen 32988
w@@ 32985
letzten 32934
needs 32825
sten 32816
x 32772
einmal 32771
And 32722
at@@ 32702
group 32619
Recht 32550
Vor@@ 32478
less 32471
la 32470
System 32448
while 32435
protection 32433
House 32318
Euro 32314
To 32151
Fraktion 32095
deren 32082
trade 32065
better 32029
beim 32028
programme 31913
company 31912
Mrs 31805
Sicherheit 31742
Regierung 31737
sehen 31722
life 31712
power 31710
drei 31710
Bedeutung 31661
legal 31635
current 31597
down 31566
With 31546
12 31493
Staaten 31472
50 31426
whether 31419
always 31399
state 31353
Was 31331
What 31280
particularly 31270
dabei 31204
terms 31139
worden 31136
U@@ 31123
working 31034
einfach 30993
ins 30957
ja 30913
seinen 30881
making 30871
C 30817
p 30810
große 30796
du 30768
At 30748
Seite 30705
großen 30642
using 30614
Aber 30604
3@@ 30598
They 30551
muß 30548
full 30543
c 30504
th@@ 30391
2007 30379
könnte 30350
z 30311
present 30277
issues 30264
weiter 30209
basis 30150
become 30131
Zimmer 30069
Politik 29954
2000 29905
production 29867
am@@ 29854
result 29791
Probleme 29783
Kommissar 29733
Bei 29707
Daten 29696
did 29687
open 29655
bringen 29622
Thema 29604
together 29518
welche 29511
et 29471
em@@ 29434
women 29416
ar 29411
darüber 29360
sector 29341
Möglichkeit 29330
management 29288
wissen 29240
Er@@ 29199
davon 29184
conditions 29151
dis@@ 29150
st 29132
ated 29127
certain 29105
another 29085
These 29063
role 29050
Al@@ 28956
main 28924
ens 28896
When 28890
daher 28878
health 28871
page 28843
� 28834
government 28798
Weise 28744
Verfügung 28724
ischen 28715
line 28709
meiner 28648
führen 28648
Richtlinie 28632
eigenen 28584
children 28523
aller 28510
budget 28376
region 28351
located 28348
Zukunft 28292
Auf 28270
global 28260
Auch 28219
second 28215
special 28176
Un@@ 28147
liche 28136
companies 28075
unterstützen 28059
ter@@ 28051
around 28038
respect 28018
enden 27943
matter 27926
kein 27866
sowohl 27865
industry 27798
men 27734
control 27728
eren 27713
wirklich 27690
Nach 27649
ale 27613
done 27573
Ihr 27542
account 27459
politische 27431
crisis 27410
ihnen 27404
Als 27396
sp@@ 27390
Er 27359
especially 27348
whole 27327
alles 27279
stay 27272
gegenüber 27252
Rolle 27249
decision 27229
weitere 27210
ende 27185
4@@ 27174
Be@@ 27165
specific 27135
stellt 27108
100 27085
&apos;t 27076
Beispiel 27070
Stadt 27028
natürlich 27011
non 27006
9 26996
rapporteur 26991
D 26982
x@@ 26961
various 26877
as@@ 26873
Frauen 26872
km 26867
Ende 26847
europäische 26817
h 26786
zwar 26765
erreichen 26725
create 26707
innerhalb 26693
_ 26639
besonders 26615
25 26578
third 26577
land 26533
research 26523
term 26497
million 26488
internationalen 26444
r 26442
ische 26374
site 26360
resolution 26357
old 26301
continue 26278
S 26278
bieten 26230
Weg 26103
con@@ 26090
hatte 26043
directive 25963
private 25962
St@@ 25933
growth 25917
Ihrer 25899
called 25871
hand 25868
really 25862
Seiten 25858
regard 25829
os 25776
EUR 25750
unser 25745
verschiedenen 25743
gentlemen 25728
Kunden 25691
rules 25645
itself 25627
ch 25610
vielen 25581
it@@ 25546
ste 25495
se@@ 25463
experience 25450
major 25431
going 25413
centre 25375
lich 25327
look 25304
least 25291
2006 25276
möchten 25238
something 25216
fully 25195
18@@ 25137
Meinung 25099
single 25029
gehen 25013
Service 25011
local 24995
water 24955
chen 24937
institutions 24933
* 24898
der@@ 24810
X@@ 24786
project 24762
24 24755
wish 24750
kommt 24734
Situation 24697
ted 24688
pro 24680
general 24634
Treaty 24599
ting 24595
sen 24575
ating 24567
start 24566
Artikel 24564
+ 24558
Germany 24542
ler 24511
B 24484
ask 24471
Zusammenhang 24402
Madam 24362
te@@ 24357
German 24354
transport 24314
befindet 24222
ger 24217
subject 24167
is@@ 24153
Lösung 24126
lichen 24124
list 24079
towards 24023
ad@@ 24003
environment 24001
following 23966
dort 23956
increase 23940
software 23922
name 23919
often 23915
Mittel 23835
once 23833
00 23814
aid 23773
close 23763
modern 23758
gesagt 23758
entfernt 23753
days 23729
T 23653
welcome 23613
economy 23579
thank 23564
ert 23528
ly 23517
Programm 23453
Tag 23447
several 23435
positive 23426
resources 23362
weniger 23350
money 23333
erste 23325
Y@@ 23324
ent 23321
Präsidentin 23281
opportunity 23243
co@@ 23237
sk@@ 23216
et@@ 23192
Rates 23186
approach 23141
beiden 23122
nehmen 23119
Um 23113
Members 23073
arbeiten 23062
things 23048
im@@ 23020
bi@@ 22995
Region 22992
daran 22971
forward 22957
Ihren 22949
ates 22946
off 22926
f 22920
rather 22893
11 22890
interest 22884
nämlich 22882
Hilfe 22808
No 22807
agree 22726
State 22711
2@@ 22707
field 22698
ten@@ 22694
sh@@ 22661
proposals 22623
call 22580
Europas 22558
gen@@ 22557
framework 22506
Deshalb 22465
away 22441
amendments 22434
Schutz 22414
individual 22406
Millionen 22400
age 22391
Software 22382
behalf 22380
Alle 22373
O 22334
range 22312
food 22302
standards 22274
direkt 22212
40 22181
indem 22169
5@@ 22162
price 22142
op@@ 22104
unter@@ 22103
ladies 22082
yet 22060
ations 22038
product 22035
little 22031
Grund 22029
personal 22021
ke 21870
rate 21859
Auf@@ 21857
lo@@ 21851
adopted 21846
family 21839
policies 21826
Mar@@ 21814
em 21812
World 21809
Hier 21809
progress 21808
sogar 21795
Uhr 21795
2005 21768
fast 21753
dessen 21742
unserem 21687
solution 21684
taking 21676
might 21666
New 21651
ine 21632
Hotels 21630
Dieses 21613
Ar@@ 21610
Ebene 21600
activities 21580
safety 21564
Leben 21551
let 21548
ma@@ 21545
Aussprache 21519
legislation 21515
until 21515
online 21449
jeder 21445
side 21413
quite 21409
key 21377
found 21365
costs 21332
gemacht 21316
short 21312
version 21305
gilt 21293
hinaus 21280
text 21279
opinion 21276
period 21265
schaffen 21247
points 21236
ie 21233
allow 21231
having 21215
Produkte 21207
favour 21140
value 21124
ne 21123
effective 21100
provided 21099
him 21096
ur@@ 21096
Punkt 21081
darin 21050
excellent 21043
members 21026
among 21003
glaube 20998
einigen 20982
air 20975
® 20968
nationalen 20957
TV 20923
art 20904
stand 20895
etwa 20852
macht 20846
2004 20837
brauchen 20830
Gemeinschaft 20816
reason 20800
ere 20773
technology 20760
Wirtschaft 20702
halten 20695
6@@ 20694
bitte 20673
Ro@@ 20665
responsibility 20661
öffentlichen 20660
Haus 20652
concerned 20634
re 20634
unterstützt 20625
darf 20611
difficult 20603
ac@@ 20573
Rechte 20547
home 20545
Kinder 20461
September 20447
content 20446
strategy 20349
vi@@ 20349
include 20292
greater 20288
000 20270
la@@ 20258
others 20257
bzw. 20244
play 20238
ber@@ 20237
erten 20233
Abstimmung 20233
building 20221
ebenfalls 20214
importance 20192
Dieser 20167
light 20160
One 20151
society 20139
18 20097
above 20080
&apos;@@ 20053
sicher 20030
International 20028
attention 20011
erte 19998
betrifft 19994
projects 19993
due 19991
dürfen 19981
known 19971
ag@@ 19944
ings 19934
2003 19932
results 19924
times 19919
gerade 19910
groups 19904
design 19892
environmental 19854
inter@@ 19843
weiterhin 19836
principle 19794
left 19785
Form 19771
makes 19727
sollen 19701
ihn 19689
simply 19669
Bezug 19669
words 19661
mo@@ 19646
application 19629
di 19617
He 19599
ap@@ 19535
würden 19513
ihm 19476
2001 19465
employment 19465
authorities 19434
Website 19407
den@@ 19400
ant 19396
ta@@ 19390
ans 19367
genau 19362
au@@ 19360
keinen 19360
show 19351
Deutschland 19336
customers 19331
nichts 19303
An 19287
Über@@ 19283
recent 19280
ck@@ 19265
questions 19253
ei@@ 19253
seinem 19235
po@@ 19232
clearly 19230
ihrem 19227
Strategie 19214
via 19212
14 19184
location 19183
Menschenrechte 19173
us@@ 19170
om@@ 19142
meisten 19134
wichtige 19089
Russia 19078
gute 19073
ges 19059
Personen 19034
sei 19033
Qualität 19027
klar 19009
pre@@ 19001
provides 18967
16 18967
Unsere 18967
ze 18965
0@@ 18954
ot@@ 18949
After 18942
risk 18933
deutlich 18897
addition 18888
solche 18885
G 18872
Di@@ 18848
serious 18826
achieve 18823
les 18783
ul@@ 18773
ex@@ 18755
P 18743
handelt 18735
deal 18730
bedeutet 18726
ol@@ 18719
proposed 18714
Da 18687
step 18684
aufgrund 18679
Ansicht 18659
Kosten 18640
gi@@ 18626
Umsetzung 18619
ger@@ 18601
deshalb 18594
é@@ 18578
Zugang 18561
interests 18530
.com 18530
schen 18518
besser 18512
ed@@ 18485
Gesellschaft 18467
essential 18463
est 18441
per@@ 18436
democracy 18425
7@@ 18424
user 18400
que 18395
setzen 18363
jeden 18303
regulation 18297
pages 18269
ago 18256
ser@@ 18228
training 18226
Ziele 18218
easy 18217
hoffe 18211
Demokratie 18210
Berlin 18207
internal 18204
pro@@ 18196
meeting 18194
weit 18168
kind 18165
regions 18164
website 18161
8@@ 18143
Zu@@ 18134
nutzen 18094
qu@@ 18077
elle 18065
Arbeits@@ 18058
gemeinsamen 18058
voted 18054
Vertrag 18052
views 18051
nächsten 18044
longer 18016
Con@@ 17984
M 17978
ak@@ 17975
13 17973
cultural 17971
town 17971
efforts 17946
democratic 17935
wirtschaftlichen 17932
2002 17922
address 17909
ne@@ 17906
beispielsweise 17887
alen 17874
Verantwortung 17871
ve 17864
technical 17862
implementation 17845
Vorschläge 17829
sozialen 17817
required 17813
freedom 17802
Verfahren 17798
complete 17797
staff 17785
currently 17776
Um@@ 17770
bring 17769
past 17750
peace 17736
low 17734
Finanz@@ 17716
Grundlage 17713
zusammen 17709
needed 17702
contact 17697
Bo@@ 17674
parties 17656
sen@@ 17655
En@@ 17642
los 17633
minutes 17633
competition 17627
months 17620
related 17620
responsible 17619
che 17619
Bedingungen 17606
vielleicht 17604
markets 17584
Rechts@@ 17557
Richtung 17554
IT 17514
negotiations 17504
Markt 17495
enjoy 17490
to@@ 17477
hin 17476
Aus 17475
Institutionen 17461
fen 17445
notwendig 17443
natural 17440
involved 17423
Debatte 17405
force 17393
9@@ 17385
co 17361
könnten 17356
K 17351
themselves 17339
Co@@ 17336
Dank 17309
November 17305
recht 17304
tra@@ 17296
bo@@ 17290
sure 17288
ä@@ 17264
solutions 17259
plan 17239
ci@@ 17228
Anwendung 17222
allerdings 17220
wide 17207
ken 17196
politik 17185
Windows 17183
res 17180
Herren 17176
ber 17163
Interesse 17160
Restaurant 17157
schnell 17151
Ort 17147
del 17142
reform 17133
cost 17089
erst 17077
enough 17073
führt 17069
je 17063
fundamental 17052
besten 17052
0 17048
Daher 17047
regional 17043
statt 17017
along 17014
sea 17013
Doch 16998
cases 16985
requirements 16975
developing 16966
person 16921
findet 16921
she 16919
Pro@@ 16916
nature 16881
sprechen 16881
Auswirkungen 16881
sti@@ 16880
feel 16875
wi@@ 16871
funds 16848
Reihe 16844
Hinblick 16843
werde 16837
led 16835
Presidency 16832
developed 16831
states 16813
gehört 16808
Abkommen 16791
L 16784
directly 16782
changes 16776
four 16774
date 16752
lange 16747
R 16729
house 16713
young 16694
heart 16682
par@@ 16672
X 16646
60 16636
ideal 16624
extremely 16575
education 16570
thing 16567
bleiben 16566
gemeinsame 16566
foreign 16565
zi@@ 16554
ce 16552
Berichterstatter 16550
Haupt@@ 16536
ses 16513
Gebiet 16496
Mo@@ 16462
events 16454
upon 16437
Bank 16431
ds 16428
erreicht 16417
ko@@ 16412
isch 16410
F 16401
live 16398
strong 16397
Verhandlungen 16392
Tatsache 16388
climate 16387
ali@@ 16387
Israel 16367
€ 16365
gestellt 16359
Möglichkeiten 16336
il@@ 16334
tions 16323
etc 16293
ru@@ 16276
Ma@@ 16275
beautiful 16263
workers 16258
never 16246
comes 16235
history 16228
improve 16210
Regionen 16207
tax 16198
April 16174
France 16167
consider 16166
total 16166
Par@@ 16156
bereich 16137
1999 16134
Damen 16133
true 16127
central 16098
lot 16096
nach@@ 16079
mit@@ 16078
keep 16072
erung 16064
danken 16050
investment 16030
thus 16013
share 16009
ous 15977
zeigt 15975
licher 15973
initiative 15964
Von 15955
network 15941
bekannt 15941
= 15925
denke 15884
effect 15874
verwendet 15864
Version 15848
ina 15844
prices 15832
century 15828
EN 15798
ca 15781
wenig 15781
Geschichte 15760
Unter@@ 15751
man@@ 15747
ü@@ 15726
seen 15721
erforderlich 15721
UN 15718
either 15698
procedure 15678
rates 15672
though 15669
actually 15666
pay 15665
Dienstleistungen 15663
Ch@@ 15657
$ 15657
majority 15632
tion 15621
kleinen 15620
ut@@ 15610
appropriate 15609
Vereinigten 15605
accept 15599
run 15595
gel@@ 15585
so@@ 15584
care 15566
lead 15559
held 15552
Ihrem 15539
understand 15535
top 15529
Bar@@ 15501
event 15499
station 15490
ons 15489
success 15480
Entscheidung 15480
idea 15474
Änderungsanträge 15473
darum 15465
file 15462
red 15456
Programme 15453
Mitglieder 15450
Kolleginnen 15426
Durch 15390
Krise 15389
oft 15388
da@@ 15386
ha@@ 15381
From 15374
voll 15372
do@@ 15370
Turkey 15359
language 15356
request 15351
Man 15349
created 15345
Ex@@ 15339
ec@@ 15330
hin@@ 15329
Schritt 15326
standard 15322
ing@@ 15306
ever 15302
Änderungsantrag 15301
Beziehungen 15292
ka 15291
eb@@ 15287
GmbH 15265
zurück@@ 15257
ene 15240
no@@ 15236
hätte 15236
bereit 15236
almost 15234
additional 15232
gesamten 15228
over@@ 15200
Ge@@ 15199
ms 15197
Abgeordneten 15194
ebenso 15188
ou@@ 15184
meet 15174
V 15174
please 15165
ni@@ 15164
AG 15148
according 15145
relations 15132
ic 15125
certainly 15115
her@@ 15110
visit 15092
La 15090
ator 15086
Ergebnis 15077
context 15076
type 15074
soon 15052
Bereichen 15048
capital 15047
17 15040
dar 15033
hatten 15027
liegen 15026
gegeben 15024
ermöglicht 15010
Türkei 15004
material 15003
Verordnung 14998
car 14997
direct 14996
end@@ 14975
Office 14956
Nähe 14953
ster 14945
concerns 14937
unternehmen 14936
Please 14929
Antwort 14929
einzelnen 14921
aware 14904
80 14872
agreements 14866
living 14860
est@@ 14859
significant 14852
alten 14848
doing 14846
Wirtschafts@@ 14846
v 14844
programmes 14832
impact 14832
mon@@ 14825
facilities 14825
weltweit 14825
durch@@ 14811
team 14809
ra 14807
American 14800
eln 14791
Bevölkerung 14780
Förderung 14760
everything 14756
internationale 14755
Ausdruck 14750
ange@@ 14748
200 14732
Am 14732
Liste 14732
five 14731
verschiedene 14706
spielen 14702
ff@@ 14701
French 14699
near 14696
guarantee 14693
kon@@ 14692
Neu@@ 14687
all@@ 14686
Government 14682
&gt; 14680
leben 14679
communication 14670
Minister 14670
fragen 14660
committee 14657
receive 14652
ati@@ 14651
road 14650
tri@@ 14637
existing 14635
weiß 14606
wichtigen 14605
decisions 14604
guests 14583
mentioned 14578
America 14577
vier 14568
tragen 14556
ung@@ 14553
geführt 14535
nen 14516
Grund@@ 14508
takes 14490
helfen 14490
act 14488
included 14472
turn 14457
military 14436
looking 14431
fall 14429
ir@@ 14419
add 14416
gestimmt 14412
zen 14400
weiteren 14392
Zu 14387
Ausschusses 14387
Sp@@ 14378
jobs 14372
try 14368
fer@@ 14367
su@@ 14365
gemeinsam 14355
space 14324
verfügt 14324
knowledge 14314
concerning 14309
Außerdem 14300
500 14291
ors 14280
Th@@ 14279
ability 14271
enen 14262
Gruppe 14248
ging 14240
designed 14240
Aufgabe 14235
Kontrolle 14232
links 14231
heißt 14228
writing 14207
big 14205
How 14198
objectives 14192
reasons 14188
eg@@ 14183
users 14172
Geld 14164
week 14155
final 14144
Behörden 14138
hi@@ 14131
Erfolg 14131
hard 14123
tive 14121
gleichzeitig 14113
bleibt 14106
media 14100
Iran 14100
N 14086
ellen 14079
entwickelt 14073
reach 14067
ally 14049
Court 14046
Entschließung 14027
Forschung 14020
gleichen 14019
euro 14018
stage 14009
meinen 14007
across 14004
works 13993
Rück@@ 13993
remain 13988
17@@ 13981
un 13979
integration 13972
Lisbon 13965
jedem 13960
community 13954
apply 13953
connection 13947
wegen 13941
ty 13940
ben 13931
ner 13925
Ausschuss 13923
party 13919
Japan 13906
throughout 13904
parts 13898
population 13881
21 13879
Man@@ 13857
governments 13849
unique 13845
By 13827
demand 13827
outside 13824
Jahres 13823
gebracht 13821
w 13820
Erweiterung 13815
ker 13811
fi@@ 13806
values 13794
moment 13783
ek@@ 13753
www.@@ 13745
ways 13741
program 13736
cht 13730
Russland 13712
hinsichtlich 13712
restaurant 13709
nothing 13707
sense 13701
agricultural 13697
verbunden 13695
amount 13689
DE 13687
took 13687
gra@@ 13676
ö@@ 13657
fight 13647
member 13636
ischer 13633
II 13616
objective 13609
sche 13608
Beitrag 13597
Minuten 13589
concern 13586
Car@@ 13583
situated 13578
leading 13574
early 13568
night 13535
Sicherheits@@ 13534
Bau@@ 13520
practice 13515
Ad@@ 13512
Paris 13500
Preis 13498
gab 13496
face 13491
My 13486
although 13482
Lo@@ 13476
Schaffung 13468
Li@@ 13456
zeigen 13455
later 13451
jede 13447
gt 13431
established 13429
basic 13426
partners 13425
mi@@ 13422
ziehen 13415
Le@@ 13414
unseres 13409
benefit 13399
model 13391
Regierungen 13389
Verbesserung 13389
Affairs 13378
19 13376
card 13375
Projekt 13358
performance 13344
features 13344
Po@@ 13340
mail 13330
konnte 13324
board 13323
regarding 13320
ad 13318
H 13314
San 13304
check 13291
develop 13288
Mal 13287
bekommen 13275
music 13268
Kon@@ 13265
gu@@ 13256
enthalten 13251
Let 13240
pool 13240
22 13218
move 13194
Web 13191
reports 13185
read 13185
Einsatz 13185
package 13173
aim 13172
completely 13166
indeed 13165
customer 13164
Ent@@ 13163
Verbindung 13156
send 13155
De@@ 13146
Bar 13145
lässt 13144
derzeit 13139
table 13134
befinden 13132
Park 13119
Nach@@ 13114
Landes 13107
besch@@ 13099
Verbraucher 13092
body 13088
Notwendigkeit 13088
wirtschaftliche 13087
keyword 13083
hours 13081
wohl 13079
dialogue 13075
ck 13064
web 13061
seems 13057
book 13050
South 13047
ermöglichen 13035
Ri@@ 13028
Bi@@ 13028
half 13013
famous 13005
test 12997
Lösungen 12989
culture 12976
fördern 12962
richtig 12959
Blick 12957
potential 12953
nuclear 12953
sa@@ 12947
tan@@ 12946
ma 12945
1.@@ 12937
U 12937
Zum 12936
beach 12933
Se@@ 12924
achieved 12923
Finally 12920
ise 12885
Zentrum 12883
Mon@@ 12882
traditional 12877
wichtigsten 12876
th 12875
for@@ 12873
wobei 12871
focus 12865
ell 12865
jedes 12852
East 12841
Initiative 12836
includes 12832
soziale 12832
Interessen 12829
Lissabon 12822
Nutzung 12817
active 12807
lack 12797
{ 12797
prevent 12791
Text 12779
mean 12777
Partner 12774
Platz 12770
goods 12759
Geschäfts@@ 12749
ho@@ 12747
Gelegenheit 12745
wei@@ 12744
consumers 12741
me@@ 12736
function 12733
Seit 12725
Since 12709
legen 12707
quickly 12703
00@@ 12699
Ukraine 12697
verbessern 12693
Ergebnisse 12684
genommen 12681
Gra@@ 12676
Wasser@@ 12676
ance 12674
allows 12655
Gu@@ 12653
amendment 12636
27 12629
Information 12622
original 12598
Vor 12597
neu 12596
principles 12591
ari@@ 12591
entire 12583
é 12580
pi@@ 12573
son 12554
ep@@ 12537
90 12531
Damit 12531
commitment 12529
PC 12529
enthält 12529
Online 12510
kleine 12502
treatment 12490
increased 12488
job 12478
70 12476
Article 12472
recently 12470
fest 12468
professional 12461
fair 12460
tu@@ 12457
Mail 12455
agreed 12453
levels 12453
received 12447
ran@@ 12432
simple 12431
game 12428
built 12421
sub@@ 12413
liches 12397
border 12373
Wort 12363
tatsächlich 12357
breakfast 12353
1@@ 12349
gh@@ 12348
stop 12347
perhaps 12343
follow 12340
contains 12334
ren@@ 12334
self 12332
ling 12330
völlig 12325
matters 12311
below 12302
gern 12299
ding 12292
mind 12285
ens@@ 12266
comfortable 12265
ob@@ 12251
angenommen 12245
Gesundheit 12244
dern 12238
higher 12227
huge 12225
ves 12225
ig@@ 12223
successful 12218
choice 12216
files 12210
bei@@ 12209
return 12203
everyone 12202
meinem 12196
Tra@@ 12187
London 12184
Design 12164
applications 12156
answer 12148
gar 12141
May 12139
sustainable 12139
.. 12139
whose 12134
promote 12128
Verwendung 12117
bestehen 12112
mehrere 12104
Unser 12102
enable 12095
ganzen 12091
friendly 12090
Inter@@ 12089
zusammen@@ 12088
bus 12085
len 12065
car@@ 12060
ary 12058
großer 12057
Themen 12057
Zeitpunkt 12049
joint 12046
Wachstum 12045
presented 12043
du@@ 12043
carried 12042
Central 12038
actions 12037
} 12023
ph@@ 12022
equipment 12020
eh@@ 12013
June 12010
tige 12005
Einführung 12001
Debian 11998
response 11992
WTO 11983
ft 11980
balance 11965
Darüber 11964
Vi@@ 11963
Frankreich 11957
image 11951
eigene 11943
beginning 11937
Änderungen 11929
schriftlich 11922
ts@@ 11920
billion 11909
oil 11889
Therefore 11874
gerne 11872
reduce 11869
Woche 11869
increasing 11868
tern 11866
Dis@@ 11856
Umwelt 11855
ganze 11854
effects 11845
creation 11838
Bekämpfung 11836
ach@@ 11835
sorgen 11828
added 11823
tic 11820
direction 11815
note 11813
highly 11808
gewährleisten 11800
Here 11795
aspects 11788
lose 11783
aten 11781
baren 11781
perfect 11775
exchange 11774
Ber@@ 11767
fünf 11761
pressure 11760
rest 11755
opportunities 11751
CD 11751
possibility 11750
Barcelona 11749
Kampf 11746
funding 11738
Bitte 11735
center 11730
verwenden 11724
tischen 11719
status 11709
bed 11694
bare 11690
enlargement 11688
sed 11683
bu@@ 11680
entwickeln 11680
Prozess 11667
zurück 11665
z.B. 11663
Integration 11662
capacity 11655
lediglich 11654
Fortschritte 11653
gesch@@ 11651
äußerst 11650
verstehen 11645
asked 11639
falls 11635
guten 11630
ur 11626
civil 11623
Organisation 11623
23 11615
Africa 11611
priority 11594
verfügen 11592
au 11587
August 11583
Management 11582
external 11580
anderer 11577
Kultur 11572
rund 11571
ER 11556
coming 11548
shows 11542
ana 11540
obwohl 11540
zunächst 11537
Kosovo 11534
gehören 11534
enter 11533
General 11528
bisher 11527
Erachtens 11525
pa@@ 11513
Of 11505
equipped 11505
ia 11503
press 11498
Server 11498
treffen 11490
relevant 11479
mal 11479
halte 11477
Convention 11466
ters 11464
Wert 11462
code 11461
previous 11457
Kommissarin 11457
AN@@ 11454
ationen 11448
Person 11445
Stunden 11444
computer 11441
speak 11432
closed 11431
Steuer@@ 11417
à 11414
bestimmte 11414
scheint 11414
Cor@@ 11412
meines 11407
Umwelt@@ 11401
ell@@ 11398
lin@@ 11392
shown 11391
versuchen 11391
ES 11389
protect 11388
Now 11385
forms 11379
Her@@ 11368
ges@@ 11365
einschließlich 11362
setting 11355
Linux 11355
mer 11346
á@@ 11346
reached 11344
gas 11343
gleich 11327
gemäß 11320
consumer 11317
double 11317
Industrie 11308
19@@ 11300
considered 11294
former 11294
prepared 11292
ders 11288
supply 11286
pe@@ 11282
complex 11278
är@@ 11273
W 11271
thanks 11269
behind 11267
ß@@ 11266
neben 11259
remains 11258
pl@@ 11254
Mehrheit 11252
Investitionen 11251
style 11246
office 11243
size 11239
innovative 11233
stability 11229
ändern 11219
First 11207
holiday 11202
internet 11200
geb@@ 11183
stark 11179
National 11173
300 11171
Mitglied 11170
series 11158
20@@ 11158
Juni 11147
Zahl 11145
star 11141
gung 11135
lu@@ 11133
Dinge 11127
tet 11123
Bestimmungen 11122
mm 11121
Erklärung 11115
supported 11111
res@@ 11111
providing 11108
ben@@ 11106
Spain 11084
nie 11083
Gewalt 11082
instrument 11081
men@@ 11081
zeit 11081
Tri@@ 11078
industrial 11073
assistance 11069
and@@ 11066
ausge@@ 11060
don 11052
Booking.com 11046
Dialog 11046
ment 11044
cause 11027
Italy 11026
go@@ 11022
Aktivitäten 11017
gesamte 11011
zweite 11004
sagte 11004
Entscheidungen 11002
rule 10997
bar@@ 10997
sing 10994
Anzahl 10993
Anfang 10993
sion 10981
categories 10968
Systems 10966
bestimmten 10963
maßnahmen 10963
hohen 10948
hei@@ 10946
Q@@ 10944
relation 10941
movement 10941
tigen 10940
choose 10938
Handel 10936
operation 10931
war@@ 10929
British 10927
English 10925
bringt 10925
Su@@ 10924
Some 10921
ys 10921
vergangenen 10914
efficient 10913
Während 10913
regulations 10910
gesetzt 10901
organisation 10897
Mai 10894
decided 10889
Vorschriften 10888
1998 10881
front 10881
materials 10876
sites 10875
regards 10873
latest 10871
agenda 10869
walk 10861
net 10856
Tage 10856
solchen 10851
Erfahrung 10851
Lu@@ 10848
creating 10833
ieren 10824
fordern 10820
isches 10819
limited 10803
December 10802
Amsterdam 10794
sch 10792
partner 10792
nimmt 10784
legislative 10777
places 10775
Wahl 10774
commercial 10763
ta 10762
erster 10762
Position 10748
ender 10744
instruments 10737
independent 10734
anzu@@ 10734
Beschäftigung 10724
somit 10723
Dabei 10722
discussion 10714
chten 10714
came 10712
systeme 10709
fallen 10706
Hand 10704
tische 10701
gs 10689
compromise 10686
tion@@ 10686
Gefahr 10685
ern@@ 10682
Familie 10679
Angebot 10674
15@@ 10673
Produktion 10673
Party 10663
Macht 10663
Energie 10654
mar@@ 10650
ic@@ 10647
Qu@@ 10646
Team 10641
els 10632
violence 10623
pleased 10622
mein 10619
Standpunkt 10612
später 10608
Herzen 10601
Punkte 10594
ets 10592
Aufmerksamkeit 10589
Euro@@ 10581
Raum 10576
safe 10565
Western 10563
Sprache 10560
mer@@ 10556
Freiheit 10545
einzu@@ 10541
sound 10531
sc@@ 10522
gives 10521
lei@@ 10520
angesichts 10515
suchen 10511
procedures 10503
details 10500
Grenzen 10498
leisten 10498
Rights 10494
aufgenommen 10491
tung 10487
Haushalts@@ 10477
contribution 10472
search 10466
brought 10465
Nationen 10461
ard 10460
tiger 10459
video 10455
Bild 10455
dadurch 10455
Folgen 10455
europäischer 10454
programm 10434
ry 10425
Mitarbeiter 10425
provisions 10421
einzige 10420
fishing 10416
Reform 10414
link 10413
similar 10411
travel 10411
ks 10408
tre@@ 10404
mis@@ 10399
Dezember 10395
purpose 10393
structure 10392
com@@ 10386
medium 10381
statement 10377
Development 10374
Landwirtschaft 10373
außerdem 10373
up@@ 10367
steps 10364
activity 10360
item 10360
Funktion 10359
ones 10357
benefits 10337
Regeln 10335
Präsidenten 10329
distribution 10326
ative 10317
message 10316
Stelle 10309
größten 10305
Bereiche 10303
schließlich 10301
insgesamt 10296
Berichts 10296
fahren 10292
labour 10289
leave 10288
Bildung 10288
easily 10285
ches 10280
geschlossen 10280
Kar@@ 10279
Services 10274
mu@@ 10272
ties 10270
ER@@ 10266
property 10259
draft 10258
credit 10256
35 10253
Or@@ 10250
setzt 10246
instead 10245
hohe 10242
iert 10235
ure 10225
Markt@@ 10224
criteria 10221
Mediterranean 10220
rich 10220
2.@@ 10219
Site 10217
floor 10211
ps 10209
source 10207
zweiten 10204
Transparenz 10204
cher 10202
option 10199
Wettbewerb 10195
he@@ 10193
So@@ 10184
document 10180
Diskussion 10180
tor 10164
Pi@@ 10164
giving 10161
effort 10160
hotels 10159
speed 10156
Republic 10150
Portugal 10148
transparency 10145
ski 10131
sieht 10121
Preise 10121
Bemühungen 10117
Präsidentschaft 10115
poverty 10113
getan 10110
ity 10109
lichkeit 10108
park 10099
six 10082
January 10080
innen 10080
challenges 10079
Gemeinschafts@@ 10071
Auswahl 10067
neuer 10061
consequences 10059
hal@@ 10053
zahlreiche 10052
ourselves 10051
sub 10051
solidarity 10047
Today 10046
cross 10043
Spiel 10042
lines 10041
leider 10033
bank 10032
wichtiger 10026
Ru@@ 10023
lang 10023
Anforderungen 10022
elections 10020
Ko@@ 10017
March 10015
conference 10013
des@@ 10010
under@@ 10001
lage 10001
Wasser 9999
il 9998
equal 9997
mobile 9996
Business 9995
produced 9991
City 9990
Projekte 9990
Auffassung 9986
weder 9980
mann 9978
ori@@ 9975
tell 9971
Schlusselwortern 9969
Y 9965
ev@@ 9955
task 9950
Ansatz 9947
paid 9945
frei 9943
ments 9936
conflict 9931
16@@ 9930
fe 9930
popular 9929
express 9920
Umgebung 9915
anti 9913
Meine 9913
ang 9908
öffentliche 9893
wer@@ 9892
begrüße 9891
ales 9876
Tagesordnung 9876
IN@@ 9875
October 9874
IT@@ 9874
beitragen 9866
ground 9864
leicht 9859
accommodation 9856
forces 9855
zehn 9848
damage 9847
produce 9846
Natur 9838
ess 9836
server 9834
Öffentlichkeit 9828
Kraft 9821
require 9819
eigentlich 9819
reviews 9816
versch@@ 9816
Pre@@ 9815
ino 9811
bevor 9806
Gründen 9801
post 9800
Sa@@ 9798
EN@@ 9793
charge 9782
allein 9781
study 9780
bit 9778
ces 9778
nor 9778
Meer 9778
construction 9774
form@@ 9774
AR@@ 9773
März 9765
North 9763
allowed 9762
10@@ 9762
va 9759
det 9755
kl@@ 9747
reality 9744
Nur 9739
führung 9739
Bürgern 9734
terrorism 9733
growing 9727
finally 9721
diejenigen 9718
concept 9715
largest 9715
reading 9709
ihres 9705
Anfrage 9701
ST@@ 9698
summer 9697
ast@@ 9691
fer 9687
bezüglich 9686
genannten 9684
av@@ 9678
morgen 9662
word 9645
eu@@ 9643
eingesetzt 9643
Sache 9642
integrated 9639
Com@@ 9631
aktuellen 9619
hoch@@ 9616
cu@@ 9596
sts 9593
konnten 9593
Museum 9586
Änderung 9581
bad 9579
durchgeführt 9575
written 9574
ente 9574
rec@@ 9572
colleagues 9568
Linie 9564
ations@@ 9563
Sinne 9560
1997 9556
hätten 9554
Fehler 9551
verfahren 9548
Druck 9545
establish 9536
Bürgerinnen 9528
alternative 9526
vo@@ 9521
modified 9521
lan@@ 9515
ver 9513
Au@@ 9511
documents 9506
erwarten 9505
verhindern 9504
Mor@@ 9500
Land@@ 9500
York 9489
AT@@ 9489
ded 9484
benötigen 9482
Benutzer 9475
Furthermore 9472
# 9471
ah@@ 9463
teilen 9462
tomorrow 9461
kannst 9460
avoid 9459
class 9454
ort 9450
Directive 9448
West 9437
Also 9436
erneut 9436
tool 9431
talk 9430
saying 9429
draw 9428
review 9426
crucial 9424
Fällen 9421
efficiency 9418
illegal 9411
applied 9405
congratulate 9402
Italian 9399
started 9393
payment 9391
Monaten 9389
fl@@ 9383
stimmen 9383
elements 9376
ster@@ 9376
No@@ 9375
Ni@@ 9370
fo@@ 9369
26 9364
atmosphere 9361
requires 9357
Mit@@ 9357
implemented 9353
ums 9353
weisen 9347
28 9346
interesting 9342
lives 9340
July 9339
berücksichtigt 9338
gelten 9321
Höhe 9320
monitoring 9319
leaders 9316
tungs@@ 9315
organisations 9306
Gäste 9306
Januar 9292
eben 9292
1. 9289
möglichkeiten 9284
Entwicklungs@@ 9280
ES@@ 9279
Rechtsvorschriften 9278
Finanzierung 9277
Tat 9277
beyond 9275
0.@@ 9273
tools 9272
stra@@ 9272
geworden 9272
Amendment 9269
Spanish 9267
45 9262
ence 9261
goes 9254
größte 9253
Fund 9252
bel@@ 9250
analysis 9241
ess@@ 9240
reduction 9236
behandelt 9234
Do@@ 9233
wa@@ 9225
eher 9222
extra 9213
rise 9211
relating 9207
Ressourcen 9202
cken 9200
kurz 9199
employees 9190
weise 9190
Per@@ 9189
Jahrhundert 9189
types 9184
AL@@ 9184
freien 9184
voting 9182
base 9178
j 9177
gefunden 9176
Heute 9175
click 9171
immediately 9169
entsprechenden 9169
Sozial@@ 9160
genießen 9160
wenige 9157
digital 9149
Nr. 9149
processes 9146
ser 9144
warum 9135
Natürlich 9131
section 9129
weiter@@ 9129
official 9122
accession 9115
ausgestattet 9111
island 9108
fest@@ 9107
minimum 9106
AS@@ 9106
UN@@ 9096
practical 9095
Mi@@ 9089
Oktober 9088
und@@ 9085
Many 9077
pp@@ 9070
variety 9068
FR 9059
Zweitens 9045
submitted 9042
Republik 9040
carry 9038
Konferenz 9018
har@@ 9015
farmers 9011
ators 9004
Although 9003
folgt 8998
build 8996
powers 8994
tieren 8993
kan@@ 8989
vergessen 8982
Insel 8981
Wei@@ 8980
min@@ 8977
tungen 8975
sectors 8970
14@@ 8966
ism 8966
school 8964
download 8960
happy 8958
ats 8958
zumindest 8948
vertreten 8941
banks 8934
Am@@ 8932
tliche 8925
Lebens@@ 8924
Arbeitnehmer 8923
kosten 8915
Sicht 8908
guest 8902
Aspekte 8898
death 8894
expect 8892
ents 8887
waste 8885
ste@@ 8883
historical 8882
IS@@ 8882
versucht 8882
cut 8879
hand@@ 8877
hold 8874
Centre 8874
Center 8873
stell@@ 8869
sive 8866
einge@@ 8862
reference 8858
box 8857
challenge 8854
demokratischen 8854
Basis 8852
Behandlung 8852
lösen 8845
richtige 8843
pass 8837
tr@@ 8834
poor 8834
highest 8834
len@@ 8827
por@@ 8826
Italien 8826
persons 8825
useful 8817
Rei@@ 8816
gende 8816
Security 8815
Herausforderungen 8814
extent 8810
comprehensive 8809
Fach@@ 8809
eng@@ 8805
regime 8801
Welt@@ 8801
Zur 8800
land@@ 8798
überhaupt 8796
ton 8791
Parteien 8790
Berichterstatterin 8788
ideas 8786
secure 8783
drive 8779
eller 8769
apartment 8768
Angelegenheit 8767
Club 8766
Angelegenheiten 8765
ok@@ 8763
sports 8759
schützen 8755
begin 8754
Vertrauen 8753
mittel 8750
out@@ 8745
annual 8741
Werte 8738
mention 8732
businesses 8731
tig 8728
Even 8726
weeks 8724
Milliarden 8720
Bu@@ 8718
Villa 8716
Si@@ 8714
alone 8709
strategic 8708
Moreover 8706
ven@@ 8703
entsprechend 8703
reforms 8701
anders 8701
ann@@ 8700
geschaffen 8696
plans 8694
scale 8693
zahlen 8690
lies 8683
wine 8683
Musik 8683
Vergangenheit 8682
Strand 8681
Spanien 8674
erklärt 8674
implement 8666
gel 8658
gewesen 8658
heit 8656
erfüllen 8656
despite 8655
IC@@ 8650
NATO 8645
Schwierigkeiten 8644
Sk@@ 8642
Spiel@@ 8638
Lassen 8638
tem 8635
technischen 8634
Conference 8633
aler 8633
berg 8632
gesehen 8631
sto@@ 8629
Chinese 8628
innovation 8627
technologies 8622
mp@@ 8619
To@@ 8618
endlich 8616
lower 8615
aufge@@ 8614
Arbeitsplätze 8614
í@@ 8613
Hoch@@ 8613
ese 8610
Solidarität 8610
caused 8608
adopt 8587
bessere 8582
operating 8581
film 8580
wer 8578
Beginn 8578
Indeed 8576
raised 8573
La@@ 8573
Juli 8573
namely 8572
hinter 8570
Tagen 8568
Handels@@ 8566
starting 8557
nahe 8554
lau@@ 8549
round 8549
numerous 8549
Staat 8545
month 8536
During 8535
Your 8532
borders 8532
ality 8530
besondere 8530
Room 8528
Microsoft 8527
verantwortlich 8524
Hinsicht 8524
verpflichtet 8521
historic 8517
Secondly 8514
hoch 8513
accordance 8508
Küche 8508
weg 8507
tz@@ 8501
sent 8499
AC@@ 8499
frage 8497
Annahme 8496
nice 8495
Dateien 8493
scientific 8488
late 8485
transfer 8485
anderem 8479
genug 8477
sport 8475
sofort 8473
Russian 8472
Vertreter 8470
Gruppen 8468
Forschungs@@ 8463
paar 8456
Ireland 8455
Datei 8455
Verkehrs@@ 8454
child 8453
Frieden 8452
St. 8449
dar@@ 8446
fine 8442
häufig 8441
negative 8440
UK 8439
Schritte 8438
Austria 8436
currency 8428
om 8428
ready 8425
initiatives 8425
Wochen 8422
Armut 8422
1996 8421
Do 8420
doubt 8419
Afghanistan 8419
met 8418
Public 8418
ation@@ 8411
distance 8410
Technologie 8410
kennen 8408
Staats@@ 8407
Bilder 8405
lesen 8404
Du 8402
daily 8401
structural 8398
na 8398
erinnern 8398
vollständig 8395
privaten 8394
Opfer 8393
Ho@@ 8389
ss@@ 8388
Firma 8387
news 8381
32 8381
1,@@ 8381
Daten@@ 8381
reichen 8380
He@@ 8378
probably 8375
treten 8371
ass@@ 8367
Agenda 8367
High 8363
While 8360
erfolgreich 8360
scope 8359
maximum 8352
B. 8348
Instrument 8347
heutigen 8347
bl@@ 8344
Erfahrungen 8342
amerikanischen 8338
cohesion 8337
friends 8335
anything 8332
genden 8332
Kur@@ 8331
fin@@ 8324
debt 8318
became 8317
thought 8313
scher 8313
head 8311
methods 8311
ini 8310
village 8306
wählen 8300
außerhalb 8296
Verpflichtungen 8292
Nicht 8286
sometimes 8278
affected 8276
offering 8273
vorgeschlagen 8273
absolutely 8272
Bel@@ 8269
sales 8268
hören 8268
Erstens 8263
learn 8262
@ 8259
era 8257
Dollar 8256
chance 8255
Inhalt 8254
method 8253
RE@@ 8253
Verfassung 8253
For@@ 8252
offered 8251
ou 8250
trotz 8250
Is 8249
31 8245
calls 8244
tor@@ 8244
influence 8242
trying 8242
Unter 8237
Ak@@ 8236
Kor@@ 8234
darstellt 8234
accepted 8232
van 8226
erfolgt 8226
clean 8222
plant 8219
ano 8219
Groß@@ 8219
Obwohl 8217
restaurants 8216
unemployment 8211
jeweiligen 8209
representatives 8206
options 8205
bewusst 8204
expressed 8198
gre@@ 8196
uses 8196
worldwide 8194
published 8190
begrüßen 8189
2020 8185
met@@ 8184
Viele 8184
Anstrengungen 8183
machine 8180
Krieg 8179
Allerdings 8176
lost 8174
demands 8172
Reformen 8172
Praxis 8167
stärker 8167
allgemeinen 8167
globalen 8166
ären 8164
beste 8163
&apos;ll 8162
ie@@ 8160
increasingly 8159
Sonder@@ 8157
stets 8156
vital 8155
Gästebewertungen 8155
letzte 8153
Organisationen 8153
confidence 8152
advantage 8152
flexible 8148
75 8144
eindeutig 8143
genutzt 8133
entscheiden 8130
aufzu@@ 8130
critical 8129
Sal@@ 8127
tel@@ 8124
justice 8120
Terrorismus 8119
ful 8117
stands 8115
unten 8115
Web@@ 8113
Wahlen 8110
ies 8108
schwer 8107
modernen 8106
Partei 8104
overall 8098
sm@@ 8098
ade 8096
Iraq 8095
sektor 8090
committed 8083
gekommen 8082
interested 8081
sis 8081
heard 8080
neues 8078
Den 8076
zer@@ 8070
stress 8069
Binnenmarkt 8068
Thank 8061
got 8060
Selbst@@ 8057
übernehmen 8055
tsch@@ 8053
Nations 8051
maintain 8043
priorities 8041
languages 8041
wanted 8037
join 8034
bitten 8034
Mittel@@ 8033
ving 8032
administration 8028
EC@@ 8028
ore 8025
ier@@ 8024
intended 8021
University 8020
approved 8019
29 8019
Prozent 8017
ba@@ 8016
enn@@ 8015
ven 8012
erwartet 8012
sechs 8010
Folge 8006
Kriterien 8003
talking 7999
Sitzung 7996
iz@@ 7992
nationale 7991
infrastructure 7987
zahlreichen 7987
Protokoll 7981
airport 7975
cks 7971
emissions 7969
Vereinbarung 7968
Google 7967
deine 7966
enz@@ 7961
folgenden 7957
tur@@ 7955
historischen 7955
player 7952
folgen 7950
größere 7949
Einige 7948
Bei@@ 7947
tim@@ 7945
col@@ 7941
vorgelegt 7940
DVD 7938
tions@@ 7938
erkennen 7938
processing 7933
release 7932
clients 7930
See 7928
proper 7925
Denn 7924
Aufgaben 7919
conclusion 7914
worked 7913
ages 7911
Bad 7909
relationship 7908
sage 7901
cor@@ 7899
bilden 7898
seines 7894
king 7893
danke 7893
wahrscheinlich 7893
IP 7890
Standard 7890
cities 7879
br@@ 7878
El@@ 7874
Roma 7871
circumstances 7869
crime 7867
Haushalt 7866
Stabilität 7863
Anerkennung 7862
Zustimmung 7862
werk 7856
Wann 7853
ensuring 7852
fields 7848
deutschen 7843
cover 7841
Lei@@ 7837
likely 7836
bel 7834
Falle 7833
Ausschuß 7833
victims 7829
schaft 7829
opening 7828
Gesundheits@@ 7822
fish 7814
we@@ 7814
target 7811
Dazu 7811
port 7805
administrative 7802
Gesamt@@ 7801
Computer 7798
Einrichtung 7797
zudem 7792
beide 7790
competitive 7788
Greece 7787
Gar@@ 7787
volle 7785
income 7777
apartments 7771
inc@@ 7768
risks 7767
persönlichen 7767
id 7765
Urlaub 7765
teile 7763
wert 7762
phone 7761
auszu@@ 7759
Sektor 7759
Flughafen 7758
Kinder@@ 7754
morning 7752
effectively 7752
denken 7751
games 7750
überzeugt 7748
offen 7745
platz 7745
Gipfel 7744
Adresse 7742
India 7739
players 7738
separate 7738
glauben 7737
tabled 7736
says 7734
contribute 7734
green 7734
images 7733
Br@@ 7730
gleich@@ 7727
dringend 7724
encourage 7723
decide 7721
tete 7717
improved 7716
berücksichtigen 7716
fra@@ 7714
minute 7710
ausschließlich 7709
kam 7706
are@@ 7704
alte 7703
gesprochen 7703
Wunsch 7703
EC 7696
Systeme 7687
erlaubt 7686
Red 7678
Nun 7676
voll@@ 7676
reduced 7674
Bal@@ 7663
Fahr@@ 7661
hinweisen 7661
gender 7659
welches 7657
contract 7656
Ac@@ 7654
agriculture 7650
sicherzustellen 7648
goal 7646
kaum 7644
Falls 7642
Idee 7642
zusätzliche 7633
Verwaltung 7632
Not 7630
People 7629
participation 7625
Ba@@ 7623
Only 7620
changed 7620
prüfen 7608
mel@@ 7602
Volk 7602
abzu@@ 7599
beginnen 7598
budgetary 7594
Mitteilung 7591
Free 7586
oben 7586
industrie 7581
tiert 7578
möglicherweise 7578
comments 7575
gezeigt 7572
cs 7570
stelle 7569
quiet 7567
Atmosphäre 7567
Flug@@ 7564
email 7563
Osten 7563
bau 7562
generation 7561
aimed 7561
sur@@ 7560
IS 7553
bald 7552
Vorteile 7549
unbedingt 7546
Hand@@ 7545
can@@ 7542
erwähnt 7542
prozess 7540
fellow 7536
Dann 7536
Asia 7533
lagen 7527
Wettbewerbsfähigkeit 7525
mainly 7524
pen@@ 7524
mountain 7523
tlichen 7522
gleiche 7521
Unterkategorien 7518
votes 7516
mission 7513
fu@@ 7510
Restaurants 7510
98 7508
Durchführung 7508
placed 7506
ler@@ 7503
ship 7496
sources 7495
motion 7493
More 7492
whom 7491
planning 7490
ff 7490
loss 7483
ständig 7475
Tre@@ 7474
train 7472
hält 7472
Agreement 7469
Nutzen 7468
union 7465
Pa@@ 7465
hoffen 7464
bestehenden 7463
akzeptieren 7461
OS 7458
assessment 7457
finanziellen 7456
bur@@ 7447
Ihres 7446
Preis@@ 7445
installation 7444
correct 7443
Schließlich 7443
map 7439
selbstverständlich 7435
bau@@ 7434
Haltung 7432
normal 7431
exist 7429
stri@@ 7428
running 7428
Go@@ 7421
automatisch 7421
partnership 7418
entspricht 7418
une 7415
,000 7411
parking 7411
Dr. 7411
fort@@ 7409
Technologien 7407
precisely 7404
Ober@@ 7404
™ 7403
laws 7401
institutional 7398
Vertrags 7396
ergreifen 7394
traffic 7386
transparent 7386
° 7386
kommenden 7385
Personal 7383
erzielt 7383
Fi@@ 7382
specifically 7380
supports 7380
ro 7377
discussed 7375
discuss 7372
dr@@ 7368
ak 7362
Plan 7361
Medien 7361
fe@@ 7358
getroffen 7354
Aufenthalt 7352
zed 7348
gerecht 7347
strengthen 7346
selection 7345
jene 7345
mindestens 7344
01 7343
bes@@ 7343
Video 7343
immigration 7342
Hause 7341
ve@@ 7340
Zunächst 7334
Sterne 7333
stated 7328
Pal@@ 7328
serve 7326
wrong 7324
families 7324
än@@ 7323
wesentlich 7322
Irak 7322
Leute 7320
protected 7317
Kultur@@ 7317
umgesetzt 7317
Ju@@ 7316
Gebäude 7316
Mal@@ 7315
pf@@ 7313
comm@@ 7310
discussions 7308
Ti@@ 7308
defined 7305
discrimination 7303
Ist 7303
CO2 7297
politischer 7297
enterprises 7296
Social 7295
limit 7294
stable 7294
wing 7293
Airport 7291
benutzt 7286
EL@@ 7285
unterschiedlichen 7285
emp@@ 7281
manner 7275
Le 7275
developments 7272
suitable 7272
sign 7267
verb@@ 7261
sel@@ 7259
Policy 7256
rural 7256
stimme 7256
Wer 7253
introduced 7252
sions 7251
ther@@ 7250
Homepage 7248
13@@ 7246
notwendigen 7243
RO@@ 7240
Einzel@@ 7237
Menschenrechts@@ 7236
powerful 7235
measure 7235
Middle 7229
ssen 7229
Chance 7228
guidelines 7223
Economic 7222
1995 7217
else 7215
aktuelle 7215
zone 7208
financing 7208
represents 7200
alität 7199
entsprechende 7197
wants 7196
Vereinten 7196
shopping 7193
af@@ 7192
menu 7188
fre@@ 7186
festgelegt 7181
² 7177
Produkt 7176
automatically 7174
richten 7172
Produktions@@ 7168
lernen 7167
ical 7166
Code 7166
nachdem 7165
becoming 7164
Augen 7164
dra@@ 7163
2011 7161
Stadt@@ 7157
session 7151
Du@@ 7151
moderne 7150
laufen 7149
speaking 7148
abge@@ 7147
wünschen 7146
sufficient 7145
dy 7144
ron@@ 7134
introduction 7134
Z 7130
yourself 7126
stärken 7125
Frühstück 7122
managed 7117
Min@@ 7114
chte 7113
referred 7110
improving 7110
geändert 7110
covered 7106
gar@@ 7103
zuletzt 7102
police 7101
Grand 7096
wor@@ 7093
competitiveness 7091
pri@@ 7081
broad 7081
bedarf 7078
West@@ 7077
closely 7072
electronic 7067
Gi@@ 7066
sitting 7065
Neben 7064
Spieler 7063
schi@@ 7062
ich@@ 7061
braucht 7057
sized 7055
War@@ 7053
äre 7051
thousands 7046
detailed 7042
animals 7039
fisheries 7037
exactly 7033
Zusammen@@ 7032
PT 7030
erfüllt 7027
Funktionen 7027
appear 7024
monetary 7024
visitors 7021
verfolgen 7021
400 7019
senden 7019
Innovation 7017
medi@@ 7014
supporting 7013
wären 7012
beziehen 7012
considerable 7009
Produkten 7009
linked 7000
hour 6999
dienen 6995
entry 6994
aktiv 6990
barkeit 6984
Forderung 6984
Zudem 6974
erhöhen 6972
signed 6971
represent 6970
vermeiden 6969
freie 6968
functions 6967
garden 6966
Initiativen 6966
erk@@ 6963
relate 6962
coordination 6962
networks 6961
za 6960
presidency 6959
chen@@ 6957
erzielen 6956
sal@@ 6955
Hotel@@ 6954
Mitgliedstaat 6954
swimming 6953
Karte 6952
Ausgaben 6949
economies 6947
evening 6945
Why 6943
comfort 6943
übernachten 6943
purposes 6941
listed 6940
mehreren 6940
speech 6936
kt 6935
delivery 6931
ß 6929
bestimmt 6929
ness 6928
Standards 6928
technische 6925
Ne@@ 6922
CO@@ 6918
handeln 6915
PL 6913
betonen 6913
parliamentary 6908
Costa 6908
99 6906
zeiten 6905
Einfluss 6905
worth 6904
Instrumente 6904
sicherlich 6903
vollen 6899
record 6898
provision 6895
Kern@@ 6895
happen 6894
SP@@ 6894
Ausbildung 6886
street 6885
ble 6883
Ta@@ 6879
feature 6878
san@@ 6878
mm@@ 6878
150 6876
thinking 6872
facing 6872
ines 6870
otherwise 6867
Swiss 6866
duty 6862
Fonds 6858
gend 6857
klare 6857
besonderen 6857
summit 6855
Abschließend 6855
genannt 6855
sor@@ 6852
erfahren 6849
ite 6848
Har@@ 6847
EL 6843
siert 6843
rechts 6841
ls 6838
Green 6837
Währung 6837
format 6835
bathroom 6829
dan@@ 6827
earlier 6826
23@@ 6826
erungs@@ 6825
Its 6824
bra@@ 6822
stellung 6821
Brussels 6820
hen 6820
ó@@ 6818
rä@@ 6813
screen 6808
extensive 6807
nisse 6807
Kenntnis 6804
Human 6803
trägt 6803
Zeichen 6801
Berichte 6801
Inhalte 6800
ek 6797
arbeit 6796
suggest 6795
darunter 6794
positions 6790
außer 6789
wieder@@ 6786
bodies 6783
entschieden 6783
LE@@ 6782
collection 6782
love 6775
expected 6772
siehe 6771
Abgeordnete 6771
operations 6769
usually 6767
4.@@ 6767
arbeitet 6765
zwei@@ 6764
z. 6757
Regelung 6757
authority 6756
lat@@ 6754
Board 6751
sol@@ 6749
verfügbar 6749
ini@@ 6747
anderes 6747
Stimme 6742
Christian 6737
Monate 6737
3.@@ 6735
Anspruch 6730
mes 6729
remember 6728
Veränderungen 6727
Verwaltungs@@ 6724
beschlossen 6724
properly 6719
students 6718
95 6717
vorgesehen 6715
ously 6713
path 6710
getting 6710
bri@@ 6708
De 6707
understanding 6706
trust 6703
Vielfalt 6701
paper 6697
marketing 6696
Großbritannien 6694
El 6693
gefordert 6693
difficulties 6692
Qualitäts@@ 6692
zes 6691
ID 6690
Einrichtungen 6688
track 6686
str@@ 6685
verbessert 6678
seem 6675
12@@ 6675
Sea 6674
AD@@ 6672
6.@@ 6672
politics 6671
domestic 6665
Then 6664
February 6655
dealing 6650
Ger@@ 6650
programs 6649
founded 6647
gew@@ 6647
threat 6646
Über 6644
followed 6642
degree 6639
Konzept 6636
ban 6634
Tätigkeit 6631
Kindern 6629
alisierung 6628
tlich 6628
Produkt@@ 6625
konkrete 6624
spirit 6621
Nor@@ 6619
pr@@ 6619
Informations@@ 6619
Beitritt 6619
ismus 6618
Wel@@ 6615
finanzielle 6615
benutzen 6614
ist@@ 6610
fund 6602
Engagement 6602
Cal@@ 6597
animal 6597
Abschluss 6597
schreiben 6595
az@@ 6594
sierung 6594
Einigung 6593
erter 6592
Anwendungen 6588
Privat@@ 6582
Wege 6579
entirely 6577
white 6573
Natur@@ 6573
sagt 6567
consideration 6566
app@@ 6566
voller 6565
Op@@ 6563
Tor@@ 6559
rechte 6559
ara 6558
began 6555
Rooms 6555
gten 6555
wider@@ 6551
presence 6549
ably 6547
sta@@ 6546
30@@ 6545
OR@@ 6544
experts 6543
Unfortunately 6543
save 6542
Straße 6541
funktioniert 6540
teten 6538
medical 6537
promoting 6535
Ö@@ 6534
freue 6534
2013 6533
gli@@ 6532
born 6531
refer 6530
regular 6530
combat 6529
Familien 6529
Czech 6528
flexibility 6527
fällt 6527
cal 6525
Just 6523
Gen@@ 6520
ss 6517
Status 6515
comp@@ 6514
durchaus 6514
trans@@ 6513
ya 6513
Suche 6513
ology 6512
Research 6510
average 6510
humanitarian 6507
Gebieten 6504
Herausforderung 6500
stock 6499
5.@@ 6498
War 6498
Besuch 6497
enten 6496
darstellen 6495
zer 6494
Berg@@ 6491
enti@@ 6484
establishment 6483
warm 6481
97 6479
&apos;re 6479
dient 6478
Wein@@ 6478
konzentrieren 6476
ish 6475
Angesichts 6475
gelangen 6474
Zeitraum 6474
hear 6473
opened 6471
klicken 6470
ub@@ 6465
Transport 6464
verkehr 6459
Poland 6452
Modell 6451
Switzerland 6447
sa 6447
Chi@@ 6445
entweder 6441
Achtung 6441
möglichen 6441
Jo@@ 6440
Schengen 6439
endes 6439
failure 6437
Stellungnahme 6434
terrace 6430
oren 6429
dagegen 6428
element 6426
Wohn@@ 6423
langen 6422
camera 6417
opposition 6415
Sommer 6414
ying 6413
fiscal 6413
fa@@ 6413
richtigen 6410
Dra@@ 6409
applies 6407
origin 6407
euch 6407
Kingdom 6406
Warum 6404
played 6403
spend 6403
erklären 6403
finance 6398
freuen 6398
mat@@ 6397
Rede 6396
ausdrücklich 6395
Dienste 6394
Griechenland 6393
Kunst 6392
Prioritäten 6391
difference 6390
Gemeinsamen 6390
Belarus 6387
implementing 6380
Zweifel 6380
Installation 6379
seriously 6377
Afrika 6377
Leistungen 6376
Spa 6374
reducing 6373
practices 6373
adoption 6373
informed 6372
Each 6371
Menge 6370
Lesung 6370
Jetzt 6366
Ra@@ 6365
amp@@ 6364
Stärkung 6364
client 6363
Ku@@ 6363
pres@@ 6360
plus 6357
selected 6357
Programms 6352
Kontakt 6350
ants 6348
Einhaltung 6348
defence 6347
tourism 6345
metres 6345
Forderungen 6343
Col@@ 6342
Fischerei@@ 6342
aims 6341
eri@@ 6340
Antrag 6339
connected 6335
erstellt 6333
möglichst 6333
Worte 6333
gewährleistet 6333
fixed 6332
propose 6331
Mu@@ 6331
gelegen 6331
buy 6326
ach 6325
Des@@ 6325
betrachtet 6323
appears 6319
pre 6319
criminal 6317
components 6316
wollte 6314
Frankfurt 6313
Arbeitslosigkeit 6310
geh@@ 6309
bedingungen 6307
lokalen 6306
spielt 6301
exclusive 6299
cre@@ 6295
playing 6291
ef@@ 6290
Europeans 6289
actual 6288
fied 6287
markt 6287
erenden 6286
Stand 6283
Kunst@@ 6283
select 6281
zei@@ 6281
walking 6280
Dennoch 6279
vehicles 6277
Trade 6276
Pakistan 6275
Vergleich 6274
permanent 6273
ics 6272
con 6271
welcher 6268
Open 6266
teilweise 6266
geleistet 6266
Bush 6264
aspect 6264
election 6264
photo 6264
diskutieren 6264
96 6263
gewinnen 6262
del@@ 6261
God 6261
won 6257
tourist 6256
eingehen 6255
Firstly 6249
com 6249
Familien@@ 6249
not@@ 6248
laden 6248
regionalen 6246
kulturellen 6244
balanced 6243
Wahl@@ 6242
south 6238
Sprachen 6238
Bild@@ 6237
Schweiz 6237
meetings 6236
ns 6232
differences 6228
geschehen 6228
Sorge 6225
Justice 6224
plants 6224
attempt 6223
prä@@ 6221
Me@@ 6220
nis@@ 6220
einiger 6218
respond 6217
core 6217
Schul@@ 6214
Zeiten 6214
stre@@ 6206
warten 6206
Arbeiten 6206
bro@@ 6205
ban@@ 6204
Because 6201
producers 6200
shop 6199
anti@@ 6199
Enterprise 6198
jederzeit 6198
uni@@ 6197
gte 6197
cur@@ 6196
tionen 6196
Teile 6193
myself 6191
Apartments 6189
Aufnahme 6189
reasonable 6187
wenden 6186
spending 6185
schwierig 6185
larger 6182
MS 6182
statements 6180
structures 6179
served 6176
tour 6175
star@@ 6171
ris@@ 6170
š@@ 6170
starke 6169
Sub@@ 6168
purchase 6168
Leider 6167
Zweck 6167
sches 6162
Forum 6161
Analyse 6161
tn@@ 6160
ment@@ 6157
consumption 6156
lt 6156
Februar 6155
win 6152
speziell 6148
hands 6147
Health 6145
Hei@@ 6143
tro@@ 6141
dangerous 6140
Prime 6139
alt 6138
nächste 6138
erfolgen 6138
recognition 6135
mor@@ 6134
Vielen 6134
happened 6133
unabhängig 6133
advanced 6132
Barroso 6132
concrete 6130
wo@@ 6130
stoffe 6130
easier 6129
prior 6128
Por@@ 6128
erleben 6128
vel@@ 6126
Vol@@ 6125
demokratische 6125
Reise@@ 6120
gelegt 6119
Hauses 6114
verfolgt 6114
Aspekt 6112
acc@@ 6109
Mitte 6108
teil@@ 6107
feststellen 6107
http 6105
genuine 6104
Best 6104
Partnerschaft 6102
informieren 6102
estate 6096
Private 6096
agencies 6093
ahead 6090
Mio. 6090
inn@@ 6088
asylum 6087
gegenwärtigen 6087
tel 6086
48 6085
vision 6085
elles 6085
achten 6085
forget 6083
becomes 6079
angezeigt 6076
raise 6073
zing 6072
ement 6071
Entwicklungen 6071
dank 6069
Webseite 6067
unacceptable 6066
ungsp@@ 6065
buildings 6058
peaceful 6056
Station 6056
wal@@ 6054
Star 6054
Download 6054
calling 6053
geeignet 6053
gegenwärtig 6053
EADS 6052
Paket 6052
cards 6050
fresh 6047
immediate 6046
numbers 6046
Pan@@ 6044
Dokument 6044
evidence 6042
generally 6040
Tur@@ 6037
trading 6033
impossible 6033
gave 6033
hingewiesen 6029
introduce 6027
elegant 6027
Wi@@ 6025
Ja 6024
Globalisierung 6024
telephone 6023
.... 6018
seek 6017
führenden 6017
unbe@@ 6016
acts 6015
Not@@ 6013
Post@@ 6010
ien 6009
fear 6008
Mark@@ 6007
erscheint 6005
Überwachung 6003
Banken 6000
ften 5996
Tier@@ 5995
went 5993
ISO 5993
membership 5993
ET@@ 5991
According 5990
guarantees 5990
elected 5985
tors 5985
angesprochen 5985
inside 5984
ßen 5983
profitieren 5982
tätig 5980
jeweils 5976
Fra@@ 5974
Schutz@@ 5972
Guest 5971
Angaben 5969
mark 5967
entstehen 5967
gestalten 5967
unterstütze 5967
phase 5966
ear@@ 5966
dennoch 5966
liebe 5966
Irish 5965
feld 5964
Indien 5963
houses 5961
ette 5960
Kunden@@ 5958
unfortunately 5956
Te@@ 5955
ungs- 5955
Film 5954
items 5953
wenigen 5953
Once 5952
Sport 5951
haus 5951
African 5949
losen 5947
Hintergrund 5947
Sh@@ 5946
associated 5945
ars 5945
benötigt 5944
voice 5943
Agrar@@ 5943
ga@@ 5942
winter 5941
Priorität 5941
fordert 5935
übrigen 5935
instance 5933
Sport@@ 5931
campaign 5930
Bundes@@ 5930
folgende 5927
ice 5926
Wissen 5926
Irland 5926
nor@@ 5925
acht 5924
Obama 5924
Polen 5924
sam@@ 5921
ws 5920
ör@@ 5920
ren 5920
gain 5917
ir 5915
Verpflichtung 5915
display 5914
Problemen 5914
improvement 5913
legt 5913
unterschiedliche 5913
establishing 5909
daten 5907
shared 5906
-- 5904
wonderful 5903
veröffentlicht 5903
Beschäftigungs@@ 5901
Mag@@ 5899
aren 5899
spent 5897
stand@@ 5897
Last 5896
Ha@@ 5896
usw. 5894
continued 5891
Texte 5890
definition 5889
experienced 5888
San@@ 5884
gro@@ 5884
Richtlinien 5884
erstellen 5881
Meiner 5880
fire 5878
carefully 5877
33 5873
ah 5871
beds 5870
John 5867
Fortschritt 5867
Lin@@ 5864
Bewertung 5864
raum 5863
führte 5862
absolut 5861
Märkte 5861
export 5857
gr@@ 5856
Ban@@ 5856
machines 5856
besuchen 5856
je@@ 5853
Österreich 5853
Gleichzeitig 5853
Most 5851
Regulation 5850
picture 5850
dri@@ 5849
Brüssel 5849
leader 5847
Turkish 5842
Regelungen 5842
detail 5841
Fest@@ 5841
closer 5840
Zeit@@ 5840
Gegen@@ 5839
überprüfen 5833
einsetzen 5832
flo@@ 5831
tradition 5829
tens 5824
anyone 5820
told 5816
bin@@ 5816
Madrid 5815
erforderlichen 5815
institution 5814
eingeführt 5814
urgent 5813
Fl@@ 5813
läuft 5813
database 5812
Energie@@ 5812
Grenz@@ 5811
territory 5810
ce@@ 5810
sichern 5809
enz 5807
Meter 5807
Herstellung 5805
sides 5804
zen@@ 5802
Fer@@ 5799
Auto 5799
Rechnung 5799
täglich 5798
ant@@ 5797
models 5795
Bra@@ 5793
ide@@ 5791
anischen 5791
eingerichtet 5789
Democrats 5788
Name 5787
sensitive 5785
weiterer 5782
inform 5780
strongly 5780
gener@@ 5780
Politiker 5780
continues 5778
PPE 5777
Golf 5777
Gro@@ 5776
Gesetz 5776
vorliegenden 5776
desire 5775
vorhanden 5771
gang 5770
Jahrhunderts 5770
Can@@ 5769
figures 5768
rein@@ 5764
positiv 5764
truly 5761
sets 5760
super@@ 5759
enormous 5758
unto 5758
changing 5753
PHP 5753
heiten 5753
sion@@ 5752
Gas@@ 5752
Win@@ 5752
Sinn 5751
Mitteln 5751
perspective 5749
Such 5748
conclusions 5746
commitments 5746
Stellen 5745
Worten 5744
deten 5741
tik@@ 5738
erungen 5738
Arten 5738
Beteiligung 5737
34 5734
outcome 5734
cher@@ 5732
teil 5728
announced 5727
gebiet 5727
Palestinian 5725
religious 5723
50@@ 5723
3D 5721
umfasst 5720
failed 5717
sort 5717
wood 5717
08 5713
Anteil 5713
wishes 5712
cia 5711
Formen 5708
bear 5707
cker 5706
umfassende 5706
brand 5704
rightly 5703
Bri@@ 5700
1994 5698
werte 5698
miteinander 5698
fil@@ 5696
Entwurf 5696
typical 5694
stat@@ 5692
fahr@@ 5692
offensichtlich 5692
tik 5690
contrary 5689
verbundenen 5689
insurance 5688
ner@@ 5688
64 5688
ertes 5686
rat 5682
convinced 5681
si 5681
rei@@ 5680
obtain 5678
med 5678
Im@@ 5677
participate 5675
Association 5674
sicherheit 5674
tin 5673
Yet 5672
Fu@@ 5671
persönlich 5671
greatest 5670
kitchen 5670
Moment 5667
weapons 5664
studies 5662
uri@@ 5660
mal@@ 5656
tasks 5651
verlassen 5651
tt@@ 5650
charged 5649
allowing 5649
Elemente 5649
Home 5648
Kritik 5648
intervention 5647
helpful 5646
7.@@ 5643
spricht 5642
schutz@@ 5642
Geschäftsordnung 5642
französischen 5642
manage 5640
Maße 5638
combination 5636
Garten 5636
Verkehr 5636
Ben@@ 5635
availability 5635
drawn 5633
fying 5633
eter 5632
beteiligt 5632
fun 5631
Kommunikation 5631
bs 5630
bre@@ 5630
Kompromiss 5629
stellte 5626
hol@@ 5625
exercise 5624
candidate 5623
Prinzip 5623
Foreign 5621
gem@@ 5621
aufmerksam 5621
Erklärungen 5621
qui@@ 5620
Nord@@ 5620
min 5619
Europäer 5619
Agentur 5617
passed 5616
described 5613
sum@@ 5612
paragraph 5611
Bedürfnisse 5610
alismus 5610
jüngsten 5609
Hel@@ 5608
britischen 5606
forced 5605
learning 5604
rel@@ 5603
ko 5603
ologie 5603
pu@@ 5602
ungs 5602
Zei@@ 5597
wesentlichen 5596
09 5595
Ideen 5595
Hersteller 5594
größeren 5594
Vo@@ 5592
factors 5591
translation 5591
Risiken 5590
controls 5588
remind 5585
unless 5585
ki 5585
ella 5585
poli@@ 5583
internationaler 5583
Fo@@ 5580
Nevertheless 5579
Due 5579
ili@@ 5577
disease 5576
character 5574
firm 5573
tru@@ 5573
door 5573
honourable 5569
Regel 5569
ently 5568
ado 5568
zentrale 5567
Gründe 5567
Air 5566
ei 5566
Constitution 5565
bestätigt 5562
payments 5560
Mann 5558
Klein@@ 5558
equality 5557
Anti@@ 5555
36 5554
achieving 5551
Fre@@ 5551
sämtliche 5551
nennen 5551
zufrieden 5550
packages 5544
absolute 5543
angeboten 5543
ierung 5542
governance 5541
burg 5541
Vielzahl 5539
cht@@ 5537
mittel@@ 5537
pe 5533
ambitious 5531
advance 5529
geschützt 5528
betrachten 5527
Cam@@ 5525
zug 5525
politisch 5525
district 5523
kaufen 5523
himself 5521
Wer@@ 5521
son@@ 5518
pan@@ 5518
Abend 5518
cl@@ 5517
tsp@@ 5516
Prä@@ 5516
Besucher 5515
Druck@@ 5514
MO@@ 5513
nationaler 5510
comment 5509
ki@@ 5508
55 5508
RA@@ 5508
ame 5507
stattfinden 5507
Umfang 5507
initial 5504
zentrum 5503
Grundsatz 5502
ll 5500
Eastern 5499
obligations 5497
gelöst 5495
Beihilfen 5495
attractive 5494
minister 5493
schließen 5492
Aktionen 5491
Greek 5490
Bre@@ 5490
US@@ 5489
possibilities 5488
garantiert 5488
individuals 5486
ier 5482
names 5481
lichem 5480
reliable 5478
rent 5478
Street 5478
Pro 5478
IM@@ 5477
cuisine 5475
tiges 5474
targets 5473
Entschließungsantrag 5473
Shi@@ 5472
keinerlei 5468
expenditure 5467
season 5466
rechtlichen 5466
tests 5463
article 5459
A5 5455
sha@@ 5452
staatlichen 5452
stone 5451
Tour 5451
Pap@@ 5449
Stil 5449
Verhältnis 5448
ausreichend 5447
fahrt 5446
solcher 5446
Empfehlungen 5446
deep 5445
ECU 5443
etc. 5443
Ka@@ 5443
claims 5442
organised 5439
Absatz 5437
middle 5436
testen 5436
Federal 5435
länger 5435
GDP 5434
entitled 5434
signal 5433
Hoffnung 5432
the@@ 5431
tä@@ 5430
registered 5429
ca. 5428
laid 5427
ingen 5424
starken 5424
colleague 5423
contain 5423
Treffen 5423
CH@@ 5417
unable 5416
Plan@@ 5416
Fraktionen 5415
07 5414
anlagen 5414
compared 5413
optim@@ 5413
cars 5412
Casino 5412
courses 5411
ring 5411
Foundation 5410
suite 5410
Gebiete 5410
Botschaft 5409
She 5408
schlagen 5408
limits 5406
Check 5405
obviously 5403
• 5402
Ste@@ 5400
shops 5400
wider 5398
neither 5396
moving 5395
granted 5394
überall 5394
è@@ 5392
ots 5389
spacious 5388
enables 5387
flow 5386
MP@@ 5385
sale 5385
installed 5382
globale 5379
ha 5378
corporate 5378
uner@@ 5377
d. 5377
Realität 5377
Netherlands 5375
Außen@@ 5375
Komfort 5374
court 5373
stehenden 5373
promotion 5368
skills 5367
USB 5367
resort 5366
600 5365
Santa 5365
independence 5364
fähigkeit 5363
finde 5362
ast 5361
listen 5360
syn@@ 5360
Multi@@ 5360
yesterday 5359
kraft 5359
Ur@@ 5358
advertising 5355
totally 5355
Hu@@ 5355
wirken 5355
massive 5354
combined 5354
Unternehmens@@ 5354
Risiko 5354
ll@@ 5353
Control 5351
vol@@ 5350
Pol@@ 5349
His 5348
vorgeschlagenen 5348
pleasant 5344
Ereignisse 5342
Mitgliedern 5341
completed 5340
black 5340
Monat 5337
break 5336
continuing 5335
Terrasse 5333
oni@@ 5332
großes 5331
band 5328
ada 5328
Flexibilität 5328
erhält 5327
ju@@ 5326
ay 5324
Niveau 5324
ral 5323
asking 5323
groß 5322
Saint 5320
fla@@ 5319
Dimension 5319
Ser@@ 5318
button 5317
grounds 5316
strengthening 5316
zation 5316
reservation 5315
nachhaltige 5315
expression 5312
Kirche 5312
danach 5312
jo@@ 5311
Luft@@ 5310
pointed 5309
MA@@ 5309
Links 5308
Phase 5307
AM@@ 5305
einfache 5305
IN 5304
lä@@ 5304
exhibition 5301
erfordert 5301
schönen 5298
dimension 5296
Can 5294
devices 5294
Summit 5292
allgemeine 5291
Kan@@ 5290
reden 5288
ological 5287
una 5287
800 5286
Liberalisierung 5285
spezielle 5284
monitor 5282
prevention 5280
kept 5278
Agency 5278
verloren 5278
merely 5275
substantial 5275
Gott 5275
garantieren 5275
Klima@@ 5273
Verständnis 5272
Leistung 5271
Another 5270
recommendations 5269
Geld@@ 5268
PDF 5268
gruppen 5268
architecture 5267
länder 5267
goals 5266
ausschuss 5264
science 5263
extended 5262
daraus 5262
lands 5260
erg@@ 5257
platform 5256
nation 5255
ang@@ 5255
color 5255
Gr@@ 5254
37 5251
Manager 5251
betroffenen 5250
ration 5249
schutz 5248
mass 5246
ark@@ 5245
Führung 5245
Player 5244
End@@ 5244
h. 5241
gef@@ 5241
write 5240
mechanism 5240
Grunde 5240
entsprechen 5238
multi@@ 5237
übertragen 5236
festgestellt 5235
tisch 5234
seeking 5232
condition 5232
Universität 5232
obvious 5231
lic@@ 5231
decades 5229
Mac@@ 5228
Great 5227
rück@@ 5227
kre@@ 5227
Beschreibung 5224
nahme 5223
gegründet 5222
angeht 5222
Eindruck 5220
beinhaltet 5219
ley 5217
fle@@ 5217
isch@@ 5216
Gegenteil 5216
1990 5215
hr@@ 5215
vorschlagen 5214
Latin 5213
kur@@ 5213
recovery 5212
At@@ 5212
Betrieb 5211
released 5210
install 5209
television 5208
satz 5208
Tradition 5208
Every 5207
Q 5207
Putin 5205
rechten 5204
win@@ 5203
rü@@ 5198
cke 5197
Erhöhung 5197
situations 5196
bringing 5196
attack 5194
rapid 5193
schaften 5191
fan@@ 5189
sse 5189
Titel 5189
betroffen 5188
einverstanden 5187
2,@@ 5185
consensus 5184
Met@@ 5182
abgeschlossen 5180
binding 5179
lich@@ 5179
lig 5179
Aufbau 5178
responsibilities 5177
Energy 5175
putting 5173
conclude 5172
Pu@@ 5172
Korea 5171
Patienten 5171
pictures 5170
geschieht 5170
Königreich 5166
communities 5164
Methode 5164
hor@@ 5160
Infrastruktur 5160
trag@@ 5159
exp@@ 5158
Char@@ 5157
neu@@ 5156
bezeichnet 5156
lung 5155
Jeder 5155
Deutsche 5154
zählen 5153
Gesetzgebung 5153
gruppe 5151
Koordinierung 5151
claim 5150
storage 5149
Pra@@ 5146
Kre@@ 5145
Environment 5145
Gegensatz 5145
Option 5144
cra@@ 5143
hot 5143
Hin@@ 5143
EG 5143
erhöht 5143
Sam@@ 5142
Pas@@ 5141
shower 5141
ker@@ 5138
mittels 5138
steigen 5138
arms 5137
thereby 5137
attacks 5137
biggest 5134
ti 5134
Diskriminierung 5133
fs 5132
acceptable 5131
agency 5131
strategie 5130
Unabhängigkeit 5129
gri@@ 5124
wirtschaft 5123
factor 5122
weight 5121
ga 5121
zuvor 5121
Größe 5120
host 5118
memory 5117
Media 5115
sting 5113
gn@@ 5112
fac@@ 5112
museum 5111
Thus 5110
tiv@@ 5110
Voraussetzungen 5109
liber@@ 5108
Dom@@ 5108
Überprüfung 5108
Gal@@ 5106
tried 5105
interface 5105
Bas@@ 5105
mü@@ 5103
testing 5100
consistent 5099
compliance 5098
refugees 5098
ba 5098
punkt 5098
Sol@@ 5096
Internationalen 5096
gutes 5095
informiert 5093
Bus@@ 5090
Kal@@ 5090
Super@@ 5089
ona 5086
alism 5084
coffee 5081
Prüfung 5081
background 5079
gan@@ 5079
gehalten 5078
Austrian 5073
advice 5072
besitzt 5072
ty@@ 5070
piece 5069
Hinweis 5069
maintenance 5068
tics 5068
England 5067
addressed 5066
besseren 5066
ships 5065
wichtigste 5064
capable 5063
deliver 5063
Musik@@ 5062
Breakfast 5061
einzigen 5061
north 5060
contained 5058
onen 5058
mag 5057
ancient 5055
Pat@@ 5055
Teilen 5052
guide 5049
lin 5048
Technik 5047
successfully 5046
beginnt 5046
Bur@@ 5045
ität 5045
Cas@@ 5041
Dec@@ 5041
print 5041
Generation 5041
Click 5041
echte 5041
manchmal 5040
reagieren 5038
extend 5034
Val@@ 5034
AL 5031
arten 5031
chosen 5030
gene 5029
bal@@ 5028
DI@@ 5028
Reaktion 5027
etz@@ 5026
produktion 5026
wodurch 5026
43 5025
club 5025
operate 5024
aff@@ 5024
Vienna 5023
ingly 5022
ote 5022
Klimawandel 5022
sanctions 5021
discussing 5020
Wirkung 5020
Sehenswürdigkeiten 5020
empfehlen 5020
recommend 5019
speziellen 5018
intensive 5017
causes 5016
Market 5016
Bank@@ 5016
42 5015
halt 5015
Pri@@ 5014
zusätzlich 5013
ener 5011
bewegen 5011
haften 5011
SA@@ 5010
meters 5008
Durch@@ 5008
accessible 5007
arrival 5007
sun 5007
organization 5007
reich@@ 5007
ft@@ 5006
Bor@@ 5003
digen 5003
Those 5001
fuel 5001
diskutiert 5001
investments 5000
Ebenso 5000
vehicle 4998
older 4997
Institute 4997
geschrieben 4996
Hol@@ 4995
ye 4994
stadt 4993
constantly 4992
reisen 4991
update 4990
leg@@ 4989
dynamic 4989
LA@@ 4989
lungs@@ 4989
perfectly 4988
Studio 4988
greifen 4988
Alliance 4987
Innen@@ 4987
guaranteed 4986
Kontroll@@ 4986
á 4985
Netzwerk 4984
pat@@ 4981
einander 4981
seven 4980
register 4980
hauptsächlich 4980
Ren@@ 4979
char@@ 4977
nations 4975
surface 4975
ins@@ 4974
qualified 4972
Start 4972
ik 4972
od@@ 4971
Sti@@ 4971
stes 4969
lig@@ 4966
Sanktionen 4966
relativ 4960
dedicated 4959
Support 4959
jungen 4959
zugleich 4958
Anpassung 4958
Hälfte 4957
keeping 4956
Prodi 4954
Medi@@ 4954
Mindest@@ 4954
betont 4953
multi 4950
8.@@ 4949
Grundrechte 4947
Bestandteil 4947
Betriebs@@ 4945
andererseits 4944
elt 4942
Zahlen 4942
ised 4941
talks 4941
Dem@@ 4941
Financial 4939
our@@ 4939
erende 4939
Willen 4936
Note 4935
Are 4933
stan@@ 4932
Seine 4932
category 4931
foot 4931
Romania 4931
Lan@@ 4929
Test@@ 4929
adequate 4928
beaches 4928
1992 4927
sicherstellen 4927
ländlichen 4927
Dar@@ 4925
Vertrags@@ 4925
planned 4924
Delegation 4924
ständigen 4924
65 4921
saw 4920
explain 4919
Klicken 4919
kürzlich 4918
Rec@@ 4916
positiven 4916
glichen 4914
oc@@ 4913
log@@ 4913
Zahlungs@@ 4912
Mess@@ 4910
mechanisms 4910
Sweden 4909
System@@ 4909
iger 4908
Fähigkeit 4908
25@@ 4905
jährlich 4904
route 4903
Begriff 4903
reicht 4903
industries 4902
determined 4902
sters 4898
Voll@@ 4898
surrounding 4897
sieren 4896
Nutzer 4895
Vorteil 4894
,@@ 4893
diversity 4892
trip 4892
railway 4892
val@@ 4888
derzeitigen 4888
Inn 4887
Minutes 4883
Einklang 4883
vollkommen 4881
someone 4880
art@@ 4880
werke 4880
seitens 4880
tw@@ 4878
fel@@ 4877
welt 4877
reception 4876
urge 4874
valid 4871
story 4871
physical 4870
Fälle 4870
spezifischen 4870
river 4869
cal@@ 4867
Bedarf 4866
SE@@ 4865
Welche 4863
ths 4858
ole 4858
ME@@ 4858
ischem 4858
regionale 4858
sell 4857
relax 4856
stimmt 4856
ian 4855
post@@ 4855
nu@@ 4854
49 4853
bezieht 4852
Rad@@ 4851
Strategien 4851
oral 4850
device 4850
delay 4847
evaluation 4846
ür@@ 4846
Mer@@ 4846
Fuß 4846
ine@@ 4845
zeit@@ 4845
Anlagen 4845
My@@ 4844
Festival 4844
extreme 4843
identity 4842
Global 4842
resi@@ 4841
BIP 4841
trifft 4839
leadership 4836
komplett 4835
Kyoto 4832
ong 4832
38 4831
ase 4831
Männer 4830
quote 4829
competence 4829
delegation 4828
Bedenken 4828
III 4827
booking 4827
Far@@ 4824
edi@@ 4823
Hor@@ 4821
tal 4820
24@@ 4819
resulting 4817
examples 4816
Firmen 4815
nis 4814
nissen 4813
zz@@ 4812
leads 4812
Amerika 4812
guter 4810
damals 4810
Tatsächlich 4810
conduct 4808
ill@@ 4808
bekannten 4808
Company 4807
Data 4807
Gesetze 4807
Struktur 4806
Rules 4805
mutual 4802
äu@@ 4802
contents 4801
welchen 4800
zustimmen 4800
fit 4797
dealt 4797
Kraft@@ 4797
Versuch 4797
Hamburg 4796
Unterschiede 4796
Meeres@@ 4795
ai 4794
Übereinkommen 4794
flight 4793
aircraft 4793
All@@ 4793
pla@@ 4792
praktisch 4792
sobald 4792
Card 4791
Michael 4790
Rot@@ 4790
akzeptiert 4789
Dienst 4789
window 4787
unit 4786
Net@@ 4786
Fotos 4786
spread 4785
Diskussionen 4784
vielmehr 4784
consultation 4783
technological 4782
essen 4782
object 4780
approval 4780
engine 4780
gem 4779
schneller 4778
vers@@ 4776
Kat@@ 4776
Kollege 4776
persönliche 4776
politicians 4775
patients 4773
disposal 4772
Zwei@@ 4772
Resort 4772
coast 4769
eng 4769
ausschusses 4769
association 4768
verlieren 4767
komm@@ 4765
ack 4763
standing 4762
ely 4761
treated 4759
Methoden 4758
gers 4757
ün@@ 4757
verstärkt 4756
Umständen 4756
unternommen 4756
Ordnung 4755
cm 4752
weiteres 4752
vers 4748
nearly 4748
Berücksichtigung 4747
Nacht 4746
affect 4745
representative 4745
Mas@@ 4745
mid 4742
abhängig 4742
anten 4742
Vorbereitung 4742
beauty 4741
Time 4741
manufacturing 4740
verk@@ 4740
gezogen 4740
ov@@ 4739
hu@@ 4738
Reise 4738
Grundsätze 4738
brings 4736
entwicklung 4736
beschäftigt 4736
Ratspräsident 4735
ulation 4734
buffet 4734
primary 4732
burden 4731
Tro@@ 4730
ehr@@ 4730
Ä@@ 4730
accounts 4728
mögliche 4726
Anliegen 4724
bern 4722
gestern 4722
ID@@ 4721
Bis 4721
fühlen 4720
ca@@ 4719
DA@@ 4718
ane 4718
chs 4718
gewisse 4718
books 4717
rejected 4716
85 4715
Leitlinien 4715
pol@@ 4713
weltweiten 4713
Gel@@ 4711
Kapital@@ 4711
tar@@ 4707
kostenlos 4707
Wirtschafts- 4707
waiting 4705
PS 4705
ai@@ 4704
konkreten 4704
Waren 4703
nearby 4701
Trotz 4701
Öl@@ 4701
befassen 4700
wealth 4698
deutsche 4698
Bildungs@@ 4698
gets 4695
gest@@ 4695
gewählt 4695
remove 4694
dre@@ 4694
drugs 4693
recognise 4692
Dan@@ 4692
primarily 4691
Fe@@ 4690
tig@@ 4689
zunehmend 4688
outstanding 4686
The@@ 4685
touch 4684
registration 4684
ergeben 4682
title 4680
Paul 4680
Bewegung 4678
letter 4677
02 4677
junge 4677
seien 4677
race 4676
tt 4676
spezifische 4676
betreffen 4676
urban 4675
Poli@@ 4674
emphasise 4673
nochmals 4673
bor@@ 4671
Cre@@ 4669
160 4669
Peter 4669
discover 4668
previously 4667
ante 4667
cul@@ 4667
artists 4667
log 4665
approximately 4664
ware 4664
Städte 4664
regret 4663
Comm@@ 4658
Nachdem 4658
driving 4654
soft 4654
amm@@ 4653
zufolge 4653
smoking 4651
highlight 4649
square 4649
orders 4646
existence 4646
UR@@ 4646
Ski@@ 4646
regelmäßig 4646
plan@@ 4642
Definition 4642
Gefühl 4642
ke@@ 4641
blo@@ 4640
aries 4640
Absch@@ 4640
Haup@@ 4640
pra@@ 4639
ON 4639
ists 4638
200@@ 4637
\ 4637
straße 4637
Erde 4636
Fin@@ 4635
Ausland 4635
u. 4634
Ap@@ 4633
ato 4632
las 4632
Fischerei 4631
fication 4630
Verträge 4630
beachten 4630
Ter@@ 4629
turned 4628
block 4628
9.@@ 4628
Charakter 4628
speakers 4627
pul@@ 4626
participants 4626
holidays 4626
Aussicht 4626
resolve 4625
06 4625
relaxing 4625
IA 4622
faced 4621
Paper 4621
taxes 4621
ierte 4620
meaning 4619
haft 4618
Entwicklungsländern 4616
ures 4615
church 4615
dritten 4615
disaster 4614
Both 4613
reply 4613
Licht 4613
smaller 4612
Palace 4612
Syn@@ 4612
Beifall 4612
behandeln 4611
m2 4609
sonst 4609
Wieder@@ 4607
geöffnet 4607
liability 4606
Kom@@ 4606
Verbrechen 4605
Beim 4605
früher 4605
barer 4604
anerkannt 4604
sec@@ 4603
umfassenden 4603
39 4602
verlangen 4601
spaces 4600
Martin 4600
Inseln 4600
Grenze 4599
sted 4598
ey 4598
improvements 4597
tly 4596
Sen@@ 4595
rail 4593
CA@@ 4593
Vielleicht 4593
represented 4592
berühmten 4592
knows 4590
bul@@ 4589
herzlich 4589
stu@@ 4587
wichtiges 4587
compensation 4586
uren 4586
Studie 4586
Atom@@ 4585
sei@@ 4585
stations 4585
inen 4585
Effizienz 4585
person@@ 4584
attitude 4583
species 4583
significantly 4582
Teil@@ 4581
berei@@ 4580
helping 4579
browser 4579
Laufe 4579
profit 4578
luxury 4578
Dutch 4577
Völker 4577
obligation 4576
fonds 4576
einzelne 4576
asi@@ 4574
Mel@@ 4573
traditionellen 4572
requested 4570
bit@@ 4570
ends 4569
hafte 4569
bes 4566
Dokumente 4565
liefern 4565
Any 4564
Maßnahme 4564
yes 4563
stoff 4563
,00 4561
Liefer@@ 4561
Landwirte 4561
prepare 4560
cally 4560
Chamber 4559
Unternehmens 4558
truth 4557
Schlüssel@@ 4557
grundlegenden 4557
appeal 4556
satellite 4552
Rechts 4552
Untersuchung 4551
Flash 4550
rufen 4550
Lebensmittel@@ 4549
Britain 4547
einerseits 4547
attractions 4546
keiner 4546
Teilnahme 4546
Aufgrund 4546
amongst 4545
Trans@@ 4545
zeichnet 4544
ery 4543
Voraussetzung 4543
tät 4542
Weitere 4542
stein 4541
lie 4540
enst@@ 4540
übernommen 4540
Antworten 4538
fraud 4537
seite 4537
Ministers 4536
és 4536
anbieten 4533
Despite 4530
intention 4529
Empfehlung 4529
consists 4528
affairs 4528
inform@@ 4528
felt 4527
Sprach@@ 4527
ering 4526
Format 4526
suffering 4525
Westen 4524
versions 4523
id@@ 4522
nötig 4521
dienste 4519
renewable 4518
mandate 4518
default 4518
bahn 4517
inv@@ 4516
basiert 4516
sky 4515
mode 4514
chi@@ 4513
entered 4511
tic@@ 4510
store 4510
Motor@@ 4510
heraus@@ 4510
Wegen 4509
gelungen 4509
eli@@ 4508
Nahen 4508
IL@@ 4507
Unterkunft 4507
Lake 4506
bars 4506
danger 4505
mobility 4504
comply 4503
zy@@ 4502
Tiere 4501
ehemaligen 4500
manufacturers 4499
fighting 4499
Safety 4496
niemand 4496
controlled 4495
schools 4495
solve 4495
combating 4493
Rome 4493
wiederum 4493
back@@ 4492
2012 4492
forest 4490
.00 4489
03 4488
glass 4487
Haus@@ 4487
künftig 4487
ined 4486
staatliche 4485
Absicht 4485
stoff@@ 4483
ola 4482
mountains 4482
glich 4482
steel 4479
notice 4478
ON@@ 4478
Internet@@ 4478
höhere 4478
reflect 4477
emphasis 4476
NL 4475
Mein 4475
fail 4474
substances 4473
schöne 4473
istischen 4472
arrangements 4471
Charter 4471
strength 4471
mut@@ 4471
Han@@ 4471
Friedens@@ 4471
genauso 4471
copy 4469
Hal@@ 4469
Thanks 4468
Wahrheit 4467
Mehr 4463
Eigen@@ 4463
Strategy 4461
ack@@ 4459
millions 4459
ward 4457
Mat@@ 4457
diseases 4455
kinds 4453
Material 4452
firstly 4451
Regime 4450
deiner 4450
marked 4449
staaten 4449
multiple 4448
Ob@@ 4447
Geist 4447
1993 4446
Allgemeinen 4446
surrounded 4445
bildet 4445
serves 4443
Süd@@ 4442
Agrarpolitik 4442
les@@ 4441
Other 4441
Ph@@ 4441
Find 4441
breite 4441
expectations 4439
Buch 4439
ideale 4437
bildung 4437
bath 4436
AS 4436
officials 4435
dy@@ 4435
tut 4434
dlich 4434
amerikanische 4434
Verhalten 4434
van@@ 4433
Kenn@@ 4433
ched 4431
19. 4431
ours 4430
constructive 4430
dro@@ 4430
leistungs@@ 4428
delivered 4427
fung 4427
angemessen 4427
Details 4426
landscape 4425
menschlichen 4425
Rezeption 4423
forum 4418
peoples 4418
karte 4418
Tagung 4417
Located 4416
hab@@ 4415
RO 4415
tical 4414
ended 4414
regeln 4414
gkeit 4413
recognised 4410
Geb@@ 4410
air@@ 4409
zweifellos 4408
ernst 4407
mitteln 4407
error 4405
acting 4404
hergestellt 4403
wesentliche 4403
involving 4402
User 4400
anda 4399
schwierigen 4399
extension 4397
sten@@ 4396
cing 4395
SO@@ 4395
Vom 4394
rasch 4393
lake 4392
pal@@ 4391
protecting 4389
opposite 4389
exists 4388
bezug 4388
wind 4387
.de 4386
directives 4385
Ratsvorsitz 4385
rop@@ 4384
jemand 4384
44 4382
Link 4382
launched 4381
ands 4381
Zustand 4381
Wettbewerbs@@ 4381
photos 4379
vier@@ 4379
finding 4377
Freude 4377
Volks@@ 4374
ligen 4374
quick 4372
Lord 4372
treaty 4372
250 4372
&apos;ve 4372
Comp@@ 4370
drawing 4369
lö@@ 4368
Sehr 4368
fand 4368
Veranstaltungen 4368
Nachfrage 4367
president 4366
Versch@@ 4366
ay@@ 4365
Express 4365
latter 4362
shape 4362
Live 4362
03@@ 4361
entwickelten 4359
ut 4358
Abkommens 4358
alisation 4357
optimal 4357
Ara@@ 4356
requests 4355
liste 4354
legung 4354
Before 4353
lar@@ 4353
sieben 4353
expensive 4352
Normen 4352
presentation 4351
Hi@@ 4351
White 4351
Ei@@ 4351
involvement 4350
ata 4349
Ferner 4349
gefördert 4348
Instead 4347
05 4347
tation 4347
Mis@@ 4347
Square 4347
Schäden 4347
Angebote 4346
southern 4345
ee 4345
Zi@@ 4343
bedeuten 4343
JavaScript 4342
Java 4341
Freunde 4341
zo@@ 4337
radio 4334
opposed 4333
hervor@@ 4332
whatever 4331
respective 4328
tritt 4328
criticism 4327
reg@@ 4326
feeling 4326
län@@ 4325
Kombination 4324
Schaden 4323
largely 4322
relatively 4321
rapporteurs 4321
inflation 4321
erer 4321
Skype 4321
soweit 4321
wissenschaftlichen 4320
21. 4320
pleasure 4319
ckt 4318
operators 4317
liberalisation 4316
Teilnehmer 4316
41 4314
length 4314
holding 4313
las@@ 4313
eins 4313
Altstadt 4313
Monetary 4312
contemporary 4312
Bus 4312
eye 4311
flu@@ 4311
Waffen 4309
Verfügbarkeit 4309
Two 4307
naturally 4307
genen 4307
expertise 4305
Auto@@ 4305
Beach 4305
höchste 4303
rit@@ 4299
hoher 4298
grundlegende 4297
sofern 4297
figure 4296
web@@ 4296
Hostelsclub 4296
Stunde 4294
lie@@ 4292
fte 4290
umzusetzen 4289
happens 4287
lag 4286
derartige 4285
schätzen 4285
texts 4284
port@@ 4284
Book 4284
tigkeit 4284
sta 4283
en- 4283
Bürger@@ 4283
heavy 4282
reaching 4279
debates 4277
Pool 4277
ved 4276
Farben 4276
Erwartungen 4276
author 4274
sionen 4273
applicable 4272
furnished 4272
Gast@@ 4269
ppen 4269
repeat 4266
Liebe 4266
Gedanken 4263
regulatory 4261
Schweden 4261
Angriff 4260
eight 4259
Day 4258
producing 4257
migration 4256
ol 4256
Lebens 4256
bt 4255
personally 4254
PR@@ 4252
zusätzlichen 4252
Dadurch 4251
acy 4250
Fran@@ 4250
führende 4249
tional 4248
Mc@@ 4247
equally 4246
advantages 4246
Ohne 4245
discharge 4244
Wirklichkeit 4244
Überzeugung 4243
UNO 4242
aufzunehmen 4242
Winter@@ 4241
Verbesserungen 4240
wirtschaftlicher 4240
Strukturfonds 4240
yp@@ 4238
Harmonisierung 4238
loc@@ 4236
Best@@ 4235
fruit 4234
PL@@ 4232
0,@@ 4232
begann 4232
Werk@@ 4230
ziemlich 4230
Eigenschaften 4228
kämpfen 4228
hel@@ 4227
Maria 4227
2. 4227
Winter 4227
defend 4226
happening 4225
begonnen 4225
erheblich 4225
kurzem 4224
parallel 4223
dung 4223
Pflicht 4222
temporary 4221
lebens@@ 4221
allgemein 4220
Suite 4218
lay 4217
Airbus 4216
betreffenden 4216
A4 4215
s.@@ 4215
ports 4214
Problems 4214
entscheidend 4214
AB@@ 4212
constant 4211
ordnung 4211
ire 4210
indi@@ 4210
fassen 4210
onto 4209
collective 4209
Datenbank 4209
italienischen 4209
anstatt 4209
Anfragen 4207
bekämpfen 4207
Sur@@ 4206
restrictions 4205
Swedish 4205
EM@@ 4204
inzwischen 4203
Klimaanlage 4203
Landschaft 4203
Jean 4202
Experten 4201
wasser@@ 4201
def@@ 4200
sions@@ 4200
kulturelle 4200
yer 4199
weshalb 4199
niemals 4199
Ladies 4198
amounts 4197
künftigen 4197
hostels 4196
lungen 4196
audio 4195
Shop 4195
Bahnhof 4194
historische 4193
näher 4193
Front 4192
Krankheiten 4192
proof 4191
Sta@@ 4191
ica 4191
Ziel@@ 4191
LO@@ 4190
Wal@@ 4190
Zugriff 4190
Gentoo 4189
head@@ 4188
confirmed 4187
prove 4187
ick 4187
Mittelpunkt 4187
Entwicklungsländer 4187
Emissionen 4186
covers 4185
tere 4184
erscheinen 4184
contributions 4183
appreciate 4182
ländern 4182
ett 4180
dete 4180
Energi@@ 4179
strategies 4177
ought 4176
diverse 4176
ergriffen 4176
hinter@@ 4175
Telefon 4175
Festlegung 4175
Farb@@ 4174
Royal 4173
Wa@@ 4173
whilst 4170
Sach@@ 4170
chinesischen 4170
Dublin 4169
Projekt@@ 4169
Via 4168
entgegen@@ 4164
Strukturen 4164
pension 4163
Einstellung 4163
abgelehnt 4163
fordere 4163
Drittländern 4163
experiences 4162
Bio@@ 4162
Island 4162
Off@@ 4161
healthy 4161
continent 4160
lim@@ 4160
determine 4159
carbon 4159
Berufs@@ 4159
Verhandlungs@@ 4159
centres 4158
locations 4158
engineering 4157
USD 4156
aufgefordert 4155
worse 4154
increases 4154
Nice 4153
Auftrag 4153
ced 4151
Wil@@ 4151
websites 4151
GNU 4151
istische 4151
Holz@@ 4150
umwelt@@ 4150
gratulieren 4149
mark@@ 4148
qualität 4145
opinions 4144
Innen 4144
Stellung 4144
KMU 4141
Action 4140
preis 4140
produkte 4140
ple@@ 4139
Unterschied 4139
Änderungsanträgen 4139
Post 4137
helps 4137
Van 4136
skin 4136
Ruhe 4136
awareness 4135
Kl@@ 4135
Test 4135
resolutions 4134
trotzdem 4134
privacy 4133
Gold 4133
behörden 4133
parliaments 4132
cat@@ 4132
Vision 4132
Beispiele 4132
Mitgliedschaft 4132
Uni@@ 4131
Spiele 4131
falsch 4131
valuable 4130
MEPs 4130
dec@@ 4130
Spar@@ 4130
Steuern 4128
Reform@@ 4127
interessiert 4125
Arbeitsplätzen 4125
freiheit 4123
ory 4121
Fort@@ 4121
Vorschlägen 4121
Luxembourg 4119
Übereinstimmung 4119
work@@ 4118
Mehr@@ 4118
ige 4117
eiten 4116
define 4115
gliche 4115
bestand 4115
handling 4114
Formular 4114
unmittelbar 4113
units 4112
conflicts 4112
row 4111
äl@@ 4111
Karten 4111
wirksam 4111
700 4110
leiden 4110
nung 4110
hängt 4110
willing 4108
Ost@@ 4108
Lehr@@ 4108
Bau 4108
offenen 4108
51 4107
except 4105
output 4105
requirement 4104
runs 4103
recommendation 4101
ING 4101
Schule 4101
riesigen 4099
heraus 4098
nachhaltigen 4098
Tod 4097
gl@@ 4096
Sc@@ 4096
reserve 4095
wunder@@ 4095
Rule 4094
fy 4094
spa 4094
Ratspräsidentschaft 4093
ig 4092
Poker 4092
kleiner 4091
Doppel@@ 4091
Where 4090
weg@@ 4090
verlangt 4089
Besch@@ 4089
xes 4088
lautet 4088
Körper 4088
emerging 4087
20. 4087
ierten 4086
pping 4085
zentralen 4085
AG@@ 4084
wed 4084
ching 4084
Zimmern 4084
Bro@@ 4083
ri 4082
Alternative 4082
rat@@ 4081
westlichen 4081
ular 4080
golf 4080
Verringerung 4079
Ob 4077
Apartment 4077
zugunsten 4077
Rumänien 4076
sehe 4075
investors 4074
chain 4073
sexual 4073
articles 4073
terrorist 4073
č@@ 4073
Serie 4073
formen 4073
Sitz 4073
COM 4072
Beg@@ 4072
beg@@ 4071
Kategorie 4070
dir 4069
fill 4068
Technology 4068
Kind 4068
passengers 4066
Kol@@ 4066
bemüht 4066
moved 4065
28@@ 4064
Cyprus 4063
contracts 4062
cycle 4062
David 4062
Ca@@ 4062
Angst 4062
marks 4060
hilft 4060
wagen 4060
natürlichen 4059
Süden 4058
Justiz 4057
water@@ 4056
involve 4056
atoren 4056
helped 4055
Konflikt 4055
ethnic 4053
imp@@ 4052
e.g. 4051
Tran@@ 4050
organizations 4050
profile 4049
destination 4049
hervorheben 4049
Standard@@ 4048
bauen 4048
schafft 4048
lets 4047
bas@@ 4047
gone 4046
Institution 4046
ion 4045
teilnehmen 4045
waters 4044
minim@@ 4043
Punkten 4043
sold 4042
elten 4042
welfare 4041
intend 4041
ausgezeichneten 4041
recommended 4040
47 4039
minority 4039
zieht 4038
durchzuführen 4038
beglückwünschen 4038
angemessene 4037
führer 4036
lige 4035
Del@@ 4034
ministers 4034
bequem 4034
04 4033
BSE 4033
vorzu@@ 4033
frei@@ 4032
Non 4031
spanischen 4031
Bulgaria 4030
verändert 4030
exclusively 4029
subsidies 4029
Croatia 4029
facilitate 4028
annehmen 4027
atic 4025
ero@@ 4024
PA 4024
taste 4024
cent 4023
ming 4023
Klima 4023
Nein 4023
Architektur 4021
Anlage 4021
sorgt 4020
assist 4019
zt 4019
Außenpolitik 4018
load 4016
assi@@ 4016
Tu@@ 4016
ursprünglichen 4016
Hauptstadt 4015
SMEs 4014
Munich 4013
automatic 4013
Pe@@ 4012
dor@@ 4012
berechtigt 4012
tenden 4011
funktionieren 4011
spiel 4010
volume 4009
Plaza 4009
issued 4008
fol@@ 4008
ash@@ 4008
Arab 4007
stoffen 4007
mas@@ 4006
Wien 4006
verabschiedet 4006
Beweis 4006
Drittens 4005
Ausführungen 4005
wait 4004
eck 4004
Ci@@ 4003
Regierungs@@ 4002
cap@@ 4001
stellungen 4001
Chinas 4000
effectiveness 3998
As@@ 3998
Rotary 3997
mt 3997
46 3996
edge 3995
komme 3995
Kooperation 3995
1991 3994
Pres@@ 3994
zeichen 3994
zuständigen 3994
120 3993
ture 3993
oll@@ 3993
adi@@ 3993
Leistungs@@ 3993
charges 3992
Sonnen@@ 3992
i.e. 3990
depends 3989
öffnen 3987
verstanden 3987
reserves 3986
bilateral 3986
corruption 3986
eth@@ 3986
täts@@ 3986
Kunde 3986
proved 3985
verursacht 3985
identify 3984
cheap 3984
Buch@@ 3984
reich 3984
weist 3984
schicken 3980
Cap@@ 3979
preparation 3978
oh@@ 3978
counter 3976
1000 3976
führ@@ 3976
1989 3975
10.@@ 3975
rau@@ 3974
Revolution 3973
convenient 3971
Eurozone 3970
sinnvoll 3970
besitzen 3970
operational 3969
precise 3969
TR@@ 3969
behalten 3969
eröffnet 3969
rein 3968
gabe 3968
Zentralbank 3967
IC 3965
rech@@ 3965
Weiter@@ 3965
bedroom 3964
Vereinbarungen 3964
stor@@ 3963
ausgezeichnete 3963
obtained 3962
Materialien 3962
removed 3961
..... 3961
Plenum 3961
communications 3960
pos@@ 3960
pollution 3959
Israeli 3959
demo@@ 3959
ena 3959
meat 3958
wall 3957
MySQL 3955
Gleichgewicht 3955
cking 3954
Aussch@@ 3954
Stadtzentrum 3952
universal 3950
Wor@@ 3949
sum 3948
discovered 3948
Enjoy 3948
fach@@ 3948
alist 3947
installiert 3947
verringern 3947
dritte 3946
unver@@ 3945
Prinzipien 3945
notwendige 3944
vieler 3944
imposed 3943
ala 3943
IG@@ 3943
amen 3943
ari 3943
NI 3943
facts 3942
ultimately 3942
Kann 3942
ée 3941
down@@ 3941
Ges@@ 3941
Star@@ 3940
judicial 3938
Given 3937
tend 3937
Faktoren 3937
chan@@ 3936
willkommen 3936
vorgenommen 3936
tis 3935
Lam@@ 3932
zuerst 3932
klaren 3932
nte 3931
dat@@ 3930
eigenes 3930
yst@@ 3929
Freiheiten 3929
che@@ 3928
Minderheiten 3928
Is@@ 3927
fälle 3927
Gästen 3927
Over 3926
western 3926
ate@@ 3925
echten 3925
creates 3924
creative 3924
höher 3924
ged 3923
spring 3922
bild 3922
vollständige 3921
ically 3920
cutting 3919
vari@@ 3917
hervorragende 3917
Sel@@ 3916
leaving 3915
objects 3915
master 3914
Mil@@ 3914
27@@ 3914
ausgesetzt 3914
SA 3913
focused 3912
SI@@ 3912
beträgt 3912
Regierungskonferenz 3912
Ausnahme 3909
Einbeziehung 3909
dates 3908
named 3908
Framework 3907
bericht 3907
looks 3905
understood 3905
visa 3905
Partnern 3905
erlauben 3905
Gre@@ 3904
Verkauf 3904
vit@@ 3903
abkommen 3903
Verbraucher@@ 3903
na@@ 3902
derer 3902
schlägt 3902
Element 3901
Immobilien@@ 3900
emergency 3899
trafficking 3899
Kauf@@ 3899
customs 3897
deb@@ 3897
TH@@ 3896
Charta 3895
gegangen 3895
functioning 3894
maintained 3893
launch 3893
EU@@ 3893
Projekten 3891
Nutz@@ 3890
occasion 3889
dic@@ 3887
seeing 3887
GB 3887
Militär@@ 3886
firms 3885
Use 3885
Verteidigung 3885
Ziffer 3885
entwurf 3885
Websites 3884
eyes 3883
ita 3882
Mikro@@ 3882
kostet 3882
Bahn 3880
einfachen 3880
watch 3879
etten 3878
electricity 3876
tal@@ 3876
grant 3875
Brazil 3875
Men@@ 3875
Hostels 3875
ruhigen 3875
remaining 3874
dliche 3874
zählt 3874
Maß 3874
nation@@ 3873
Gesch@@ 3873
Verbot 3873
grateful 3871
exceptional 3870
Boden 3870
Werk 3870
hundreds 3869
Straf@@ 3869
EF@@ 3866
lo 3866
Box 3866
Gesellschaften 3865
Austausch 3865
teren 3864
52 3862
Na@@ 3862
WC 3862
Ki@@ 3862
rechts@@ 3862
dly 3861
rus@@ 3861
fal@@ 3861
früheren 3860
confirm 3859
command 3859
russischen 3859
Tourismus 3857
Under 3856
vast 3854
Dem 3853
Kommunikations@@ 3853
tigung 3853
Küste 3853
Mus@@ 3852
info 3852
Drogen@@ 3852
schnelle 3852
Europol 3851
PO@@ 3851
Zentral@@ 3851
Report 3850
declaration 3850
Beratung 3849
Funds 3848
Politiken 3848
gesellschaft 3848
impression 3847
glad 3847
assen 3847
systemen 3847
Vice 3846
ot 3846
Tages@@ 3846
zugänglich 3846
Fähigkeiten 3846
tag 3845
perform 3843
sichere 3843
Marketing 3842
blue 3841
ads 3841
ett@@ 3840
parents 3840
dia 3838
Take 3837
deals 3837
submit 3836
abroad 3836
Flu@@ 3836
letztlich 3836
beschränkt 3836
Special 3834
ran 3833
Executive 3831
cho@@ 3830
hit 3829
Japanese 3829
tz 3828
password 3828
buchen 3828
statistics 3827
friend 3826
Fernseh@@ 3826
Sorgen 3826
erhältlich 3825
charming 3823
öffentlich 3822
Programmen 3822
alised 3820
bereiche 3819
off@@ 3818
bers 3818
Sor@@ 3818
fri@@ 3817
11. 3817
THE 3817
ani 3816
erweitert 3815
sat@@ 3814
Einwanderung 3814
temperature 3813
Arbeitsmarkt 3813
Real 3812
neuesten 3811
institutionellen 3811
rechtliche 3811
bestätigen 3811
boat 3810
Fol@@ 3809
Video@@ 3809
Vorschlags 3808
haltung 3807
brief 3806
ón 3806
assets 3806
hom@@ 3806
Copenhagen 3806
anische 3806
offices 3805
reject 3805
conducted 3805
committees 3805
durchführen 3805
Abschnitt 3804
residence 3802
SV 3802
trees 3801
ping 3800
pieces 3799
Kr@@ 3798
Spezi@@ 3796
Verbindungen 3796
divided 3795
S.@@ 3795
hilfe 3795
ello 3794
gespielt 3793
leiten 3793
Handeln 3792
Pact 3791
begrüßt 3791
topic 3790
yn@@ 3790
mehr@@ 3790
ED@@ 3788
Beh@@ 3788
AKP 3788
geprüft 3788
dienst 3787
Gespräche 3787
verleihen 3787
spot 3786
demonstrate 3785
Amendments 3785
Schwerpunkt 3785
transition 3784
uss 3784
Kopf 3782
Canada 3781
unge@@ 3781
Konsens 3781
ght 3780
schön 3780
unmöglich 3780
Signal 3778
Tisch 3777
höchsten 3777
Nachfolgend 3777
ass 3776
ath@@ 3776
kenn@@ 3776
Kamera 3776
minorities 3774
justified 3773
streets 3773
Polish 3773
vorlegen 3773
entstanden 3771
visible 3768
characteristics 3767
far@@ 3767
kar@@ 3766
demonstrated 3764
maintaining 3763
grow 3762
gezwungen 3762
aktive 3762
manager 3761
verhindert 3761
ausgesprochen 3760
zimmer 3760
alter 3759
öl@@ 3759
faster 3757
credibility 3757
schafts@@ 3757
wachsen 3757
dem@@ 3756
mitten 3756
Marktes 3755
Gerichtshof 3754
demanding 3753
noted 3753
Maastricht 3752
immigrants 3752
tage 3752
Kosten@@ 3752
feed 3751
tten 3749
Umgang 3748
ativen 3748
Will 3747
Nachrichten 3747
Ausführung 3747
entdecken 3747
Procedure 3745
delighted 3745
ferner 3745
somewhat 3743
Da@@ 3741
nahm 3741
crimes 3740
fli@@ 3740
Beziehung 3740
View 3739
gehende 3738
impressive 3737
Wird 3737
kol@@ 3736
Zielen 3735
ik@@ 3734
blog 3734
Bemerkungen 3733
gearbeitet 3733
geltenden 3733
Des 3732
sischen 3732
gerichtet 3732
bet@@ 3731
sicher@@ 3730
scheinen 3730
Mobilität 3730
ongoing 3728
answers 3727
tlicher 3727
organisiert 3727
sodass 3727
organisationen 3726
starten 3726
Norden 3725
ord@@ 3724
connections 3723
erleichtern 3723
vorschriften 3722
fes@@ 3720
my@@ 3719
grün@@ 3719
solange 3719
Gebrauch 3719
Applause 3718
noise 3718
Netz 3718
igen 3717
clo@@ 3716
Soviet 3716
wann 3716
ables 3715
Anbieter 3715
Mexico 3714
Protection 3714
enk@@ 3714
atives 3713
conditioning 3713
flat 3712
passiert 3712
Vorgehen 3711
audi@@ 3710
Wissenschaft 3710
produziert 3710
kurze 3710
concluded 3709
George 3709
lan 3708
vern@@ 3708
adopting 3707
Their 3707
Asien 3707
Bucht 3707
werfen 3707
bil@@ 3706
tackle 3705
Gestaltung 3705
hardware 3704
Fil@@ 3703
Maschinen 3703
zahl@@ 3703
bezahlen 3702
compatible 3701
Beiträge 3701
fehlt 3701
jenen 3701
Second 3699
Nieder@@ 3699
hinzufügen 3699
nt 3697
determination 3696
Question 3696
Gaza 3696
Fenster 3696
Washington 3695
net@@ 3695
Wider@@ 3695
extrem 3695
einheitlichen 3695
proud 3694
aci@@ 3694
Lag@@ 3694
gs@@ 3694
constitutional 3693
formal 3693
intellectual 3693
kom@@ 3691
wn 3690
signs 3690
Chancen 3690
bemühen 3690
aufnehmen 3690
mil@@ 3689
uli@@ 3689
definiert 3689
stronger 3688
preise 3688
strict 3687
entlang 3687
fen@@ 3686
argument 3686
marquis 3686
Ir@@ 3685
deficit 3685
bert 3684
bound 3683
esen 3683
vis@@ 3682
tures 3682
höheren 3682
fern 3682
wesen 3682
Mac 3681
nten 3681
couple 3680
blood 3680
verschiedener 3680
04@@ 3679
actively 3677
doors 3677
Baltic 3677
ausgeschlossen 3677
verehrte 3677
Eltern 3676
Portuguese 3674
involves 3674
fr@@ 3674
phrase 3674
ink@@ 3674
moral 3673
wollten 3673
ni 3672
Power@@ 3672
übernimmt 3672
Bedrohung 3672
Robert 3670
Besorgnis 3670
overcome 3669
fun@@ 3669
Tel@@ 3669
follows 3668
att@@ 3668
Garantie 3667
spar@@ 3665
asing 3665
Liber@@ 3664
ken@@ 3664
Power 3663
dlichen 3663
gol@@ 3662
Perhaps 3661
Mau@@ 3660
legitimate 3659
stabili@@ 3659
prozesses 3659
nieder@@ 3659
IF@@ 3658
messages 3658
Staat@@ 3658
emb@@ 3657
Browser 3657
speaker 3656
taxation 3656
contrast 3656
Get 3655
globalisation 3652
journey 3651
är 3647
organized 3646
musste 3646
declared 3644
welt@@ 3643
Erholung 3642
Em@@ 3641
regularly 3641
Roman 3640
breiten 3640
Sektoren 3640
verurteilt 3640
Hamas 3639
Hilfs@@ 3639
inf@@ 3638
respected 3637
sia 3636
Sozi@@ 3635
cold 3634
finished 3634
boot 3634
britische 3632
einig 3631
satisfied 3630
Hohen 3630
Mensch 3629
indicated 3628
colour 3628
erhebliche 3628
National@@ 3627
psych@@ 3627
gsten 3627
newly 3626
entertainment 3626
Straßen 3626
nahmen 3626
subsidiarity 3624
furniture 3623
welchem 3623
äußern 3623
roads 3622
ute 3622
regi@@ 3622
dishes 3622
Life 3621
Bru@@ 3621
Geräte 3621
Künstler 3621
Lau@@ 3620
Einkommen 3619
Werbung 3618
werten 3617
competent 3616
chemical 3616
west 3616
hau@@ 3616
drug 3615
Rau@@ 3615
citizen 3614
ome 3614
aktivieren 3614
eingesch@@ 3614
Schluss 3612
dependent 3609
by@@ 3609
dürfte 3609
entscheidende 3609
sign@@ 3608
Fischer 3608
q 3607
Luft 3607
mach@@ 3606
Very 3605
kers 3604
careful 3603
east 3602
definitely 3602
lia 3602
überzeugen 3602
3. 3601
Structural 3600
iti@@ 3600
Top 3600
Deswegen 3600
strategischen 3599
beruht 3598
accompanied 3597
fee 3597
vo 3597
Optionen 3597
dig@@ 3596
Identität 3596
bestehende 3596
schönsten 3595
bedrooms 3594
meant 3593
encouraging 3592
chs@@ 3592
Jedes 3592
Wohlstand 3592
Tom@@ 3591
Ü@@ 3591
Jahres@@ 3591
ros 3590
Hinter@@ 3589
präsentiert 3589
68 3588
München 3588
Dort 3587
setzung 3587
Women 3586
26@@ 3585
module 3584
Komponenten 3584
equ@@ 3583
Untersuchungen 3583
ises 3582
elling 3582
ester 3582
Kräfte 3581
Essen 3580
ning 3579
displayed 3579
Fa@@ 3579
outdoor 3579
laut 3579
heritage 3577
walls 3576
cable 3575
frequently 3574
ard@@ 3574
Nicht@@ 3574
Plat@@ 3573
Reg@@ 3572
fläche 3571
banking 3570
mi 3570
maritime 3569
direkten 3569
doesn 3568
cri@@ 3567
verändern 3567
Klasse 3566
familiar 3565
kla@@ 3565
exports 3564
verstärken 3564
Stra@@ 3562
Desk 3562
ill 3561
anlage 3561
root 3560
inclusion 3560
ising 3559
sensible 3558
fies 3558
lists 3558
q@@ 3557
Insbesondere 3557
Planung 3557
ticket 3556
gewährt 3556
spiel@@ 3556
tested 3555
erinnert 3555
aussprechen 3555
Fi 3554
Ware 3554
WLAN 3554
Ausgangspunkt 3554
Kontrollen 3554
leisure 3553
rapidly 3552
Ther@@ 3552
gold 3552
Radio 3552
ße 3552
heutige 3552
Schlussfolgerungen 3552
vulnerable 3551
possibly 3550
Yes 3550
Act 3550
pers 3550
Umfeld 3550
School 3548
kurzen 3548
contacts 3547
eastern 3546
resistance 3545
Alter 3545
sorgfältig 3545
raw 3544
Update 3544
Zusatz@@ 3544
nunmehr 3544
scheme 3543
constitution 3542
Welcome 3542
Bereitstellung 3542
plenary 3541
dinner 3541
zusammenarbeiten 3541
sle@@ 3540
fähig 3540
Aktion 3540
Verbreitung 3540
interpretation 3539
printing 3539
dad 3539
jegliche 3539
rising 3538
verdient 3537
bestimmen 3535
54 3534
J 3534
Förder@@ 3534
spoken 3533
license 3533
tickets 3533
kanischen 3532
partly 3531
tives 3531
cast 3531
Blog 3531
Balkans 3529
River 3529
bottom 3528
EZB 3528
tief@@ 3528
impose 3527
owners 3527
Beschluss 3527
assume 3526
showing 3526
ED 3526
plays 3525
Al 3525
Vil@@ 3525
reported 3524
Black 3524
Schi@@ 3524
died 3523
BO@@ 3523
kul@@ 3522
expansion 3521
abgestimmt 3521
provider 3520
earth 3520
Vorsitz 3520
entscheidender 3520
schließt 3520
sight 3519
mb@@ 3519
Ambiente 3519
Plattform 3519
collaboration 3518
ausgeführt 3518
ency 3517
tern@@ 3517
joined 3517
übrigens 3517
beigetragen 3517
Food 3515
sun@@ 3515
technik 3514
72 3513
ku@@ 3512
TS 3512
apart 3511
seat 3510
Bay 3508
quarter 3508
sian 3508
Old 3508
Veranstaltung 3508
Erzeugnisse 3508
Taiwan 3507
referendum 3507
schlecht 3507
reiche 3507
widely 3506
fällen 3506
jener 3506
Indi@@ 3504
gens 3504
drivers 3503
starts 3503
Vorstellung 3502
Congress 3501
TO@@ 3501
ständige 3501
effektiv 3501
aged 3500
ele 3500
druck 3500
motor 3499
Den@@ 3499
vorher 3499
Veröffentlichung 3499
driver 3497
wa 3497
dining 3495
tou@@ 3494
3,@@ 3494
reduzieren 3493
Übersetzung 3493
Belgium 3492
cuts 3492
nahezu 3492
updated 3491
HTML 3491
alle@@ 3490
sur 3487
sprachen 3487
bestimmter 3487
Selbst 3487
Krankheit 3487
elsewhere 3486
blu@@ 3486
ball 3485
occasions 3484
prefer 3484
bike 3484
int 3483
counter@@ 3483
Englisch 3482
wiederholen 3482
Staates 3481
Rechtsgrundlage 3481
Rest 3480
regarded 3479
Rel@@ 3479
destruction 3478
settings 3478
classic 3477
ham@@ 3477
cies 3477
Hungary 3476
proposing 3475
saving 3475
Fri@@ 3475
markt@@ 3475
decisive 3474
lasting 3474
Kapitel 3474
C5 3473
occur 3473
SS 3473
proposes 3472
resolved 3472
Transport@@ 3472
remote 3471
Page 3470
sucht 3470
tierung 3470
ly@@ 3469
Ausstellung 3469
rep@@ 3468
DA 3467
fäl@@ 3467
gebiete 3467
Thirdly 3466
tours 3465
weather 3464
Katastrophe 3464
excessive 3463
sicht 3463
Bon@@ 3462
Messe 3462
Morgen 3461
Wi 3461
Studien 3461
größer 3461
St 3460
Sil@@ 3460
interessante 3460
finanziert 3460
Nos 3459
afternoon 3459
ational 3458
News 3458
award 3458
Geschäfte 3458
beschäftigen 3457
ining 3456
stance 3456
properties 3456
alization 3456
Zoll@@ 3456
dert 3456
dig 3454
Client 3453
correctly 3452
kamen 3452
ambi@@ 3451
äch@@ 3451
zw@@ 3450
woman 3449
Bemerkung 3449
sauna 3448
theit 3448
Bestellung 3448
Männern 3448
Zwecke 3448
pose 3447
Fern@@ 3447
Stein@@ 3447
Marina 3447
eres 3447
puts 3446
library 3446
lösung 3444
depth 3443
Einstellungen 3443
außerordentlich 3443
betrieben 3443
Dorf 3442
verhalten 3442
Mangel 3442
eingereicht 3442
Kri@@ 3441
Ausgabe 3441
channels 3440
losses 3440
sh 3440
depending 3440
father 3440
oriented 3439
AND 3439
run@@ 3438
nden 3438
lokale 3438
passenger 3437
sharing 3437
0.000 3437
Gründung 3436
aussch@@ 3436
appointed 3434
versorgung 3434
betreffend 3434
Eu@@ 3433
2.0 3433
Band 3433
kosten@@ 3433
returned 3432
examine 3431
Rob@@ 3431
vorhandenen 3431
MB 3430
tierten 3430
isation 3429
configuration 3429
ron 3428
Plus 3427
transactions 3427
elte 3427
satisfaction 3426
educational 3426
aufen 3426
housing 3425
harmon@@ 3424
owner 3424
tobacco 3424
Noch 3424
Hafen 3424
Cro@@ 3423
Zivilgesellschaft 3423
Beschlüsse 3422
OT@@ 3421
ater 3421
sierten 3420
Glaubwürdigkeit 3420
oni 3419
castle 3419
Whether 3418
erei 3418
sprach 3418
Dor@@ 3417
generated 3416
invite 3416
presents 3416
ending 3416
Tal@@ 3416
AU@@ 3416
gestaltet 3416
Dek@@ 3415
ersch@@ 3415
Wein 3415
mag@@ 3414
entsteht 3414
Malta 3413
Neue 3413
unverzüglich 3413
AIDS 3412
pped 3411
settlement 3411
Farbe 3411
Entscheidungs@@ 3411
ungefähr 3411
Assembly 3410
ka@@ 3410
Music 3409
expert 3408
foundation 3407
B5 3407
Sha@@ 3407
preparing 3406
sy@@ 3406
liefert 3406
replace 3405
ams 3404
ativ 3403
offen@@ 3402
identified 3402
Ã 3402
metal 3401
tiv 3401
Datenschutz@@ 3401
northern 3400
desired 3400
documentation 3399
ACP 3399
beteiligen 3398
gallery 3397
Well 3396
53 3396
ination 3396
Eis@@ 3395
machte 3395
umgeben 3394
prosperity 3393
ex 3393
Islam 3393
sätze 3393
Studenten 3393
invest 3392
personnel 3392
micro@@ 3392
cy@@ 3392
tiven 3392
farm 3391
lang@@ 3391
best@@ 3390
spor@@ 3390
pen 3389
ppe 3389
Wirtschaftswachstum 3389
politically 3388
Mul@@ 3388
Adobe 3388
läßt 3388
direkte 3387
Foto 3386
gespeichert 3386
fantastic 3385
Bet@@ 3385
teams 3384
IR@@ 3384
bly 3383
Pla@@ 3383
parti@@ 3382
eignet 3382
miss@@ 3381
heating 3381
verkaufen 3381
Ansichten 3380
Flüchtlinge 3380
pursue 3379
niveau 3379
Konsequenzen 3379
anbelangt 3379
bio@@ 3378
techniques 3378
Ausstattung 3378
absence 3377
Port 3377
stellten 3377
shares 3376
Wachstums@@ 3375
wahr@@ 3374
behaviour 3373
Pl@@ 3373
wen@@ 3373
Sauna 3373
dungs@@ 3372
Korruption 3372
investieren 3370
Zwei 3369
holen 3369
56 3368
Selbstverständlich 3368
Thomas 3367
genannte 3367
lebt 3367
Mand@@ 3366
sicheren 3366
visited 3365
Sun@@ 3365
arch@@ 3364
Without 3364
wünsche 3364
einrichtungen 3364
rou@@ 3363
Kontext 3363
Gerichte 3363
sation 3362
hall 3361
soci@@ 3360
rin@@ 3360
beraten 3360
zurückzu@@ 3360
71 3359
Tru@@ 3359
IP@@ 3359
d.h. 3359
gebieten 3359
anwesend 3358
suffer 3357
Northern 3357
cer@@ 3357
Brasilien 3357
tag@@ 3356
Zwischen@@ 3356
surroundings 3355
usual 3354
Haftung 3354
Sollte 3354
transportation 3353
intensi@@ 3353
erlebt 3353
bislang 3353
voluntary 3352
stal@@ 3351
Reduzierung 3351
li 3350
CS 3350
sozialer 3350
savings 3349
bridge 3348
begrenzt 3348
Gleich@@ 3348
schauen 3348
12.@@ 3347
LE 3347
genügend 3347
ersetzt 3347
zieren 3346
eingehalten 3346
sinn@@ 3345
Badezimmer 3345
französische 3345
einzigartige 3345
installieren 3345
channel 3344
Budgets 3344
ECB 3344
vorbereitet 3344
getragen 3344
percent 3343
ous@@ 3342
...... 3342
Alles 3342
count 3341
cont@@ 3341
IV 3340
Regi@@ 3340
Überlegungen 3340
grundsätzlich 3340
copyright 3339
mostly 3339
unk@@ 3339
recht@@ 3339
considering 3338
para 3338
abuse 3337
imports 3336
fashion 3335
86 3335
fort 3335
ktionen 3335
VAT 3334
Nachricht 3334
trend 3333
ton@@ 3333
Legal 3331
ktion 3331
verkehrs 3331
belie@@ 3330
mar 3328
serviert 3327
Ungarn 3326
einbezogen 3326
selbst@@ 3325
schlag 3324
--@@ 3323
performed 3322
BR@@ 3322
Stück 3322
liegenden 3322
frame 3321
92 3321
Out@@ 3321
aller@@ 3321
Distribution 3321
Stimmen 3321
herrscht 3321
wiederholt 3321
Wind@@ 3320
Schlafzimmer 3320
Gewicht 3320
angebracht 3320
Nov@@ 3319
Jede 3319
vorstellen 3319
Kollegin 3319
employed 3318
AV@@ 3318
Mobile 3318
Friday 3317
stored 3317
einfacher 3317
assure 3315
containing 3315
sugar 3315
Kredit@@ 3315
Besonders 3315
raising 3314
ishing 3314
Gewährleistung 3314
distributed 3313
nevertheless 3313
formed 3312
drink 3312
raten 3312
applying 3311
solches 3311
Ab 3310
duties 3309
59 3309
hängen 3309
Genehmigung 3309
erfolgreiche 3309
freedoms 3308
wissenschaftliche 3307
stehende 3307
index 3306
ließ 3305
Bat@@ 3304
Polizei 3304
Sommer@@ 3304
Straßen@@ 3304
Newsletter 3303
exception 3301
rig@@ 3299
Prague 3299
massage 3298
Auge 3298
substance 3297
wel@@ 3297
TO 3297
kte 3297
arrive 3296
Lö@@ 3296
posi@@ 3296
offiziellen 3296
Agriculture 3295
slow 3295
match 3295
corresponding 3294
King 3293
Award 3293
flows 3292
Mur@@ 3292
Positionen 3292
We@@ 3289
stände 3289
langfristige 3289
suppliers 3288
revi@@ 3287
Budget 3286
productivity 3285
inhabitants 3285
Finanzierungs@@ 3285
dol@@ 3284
lam@@ 3284
ora 3284
Dienstleistungs@@ 3284
providers 3283
angegebenen 3283
component 3282
heat 3282
Gefahren 3282
bereitgestellt 3282
courts 3280
Islamic 3280
Strasbourg 3279
Schulen 3279
Hungarian 3278
gewissen 3278
mittleren 3277
cash 3276
Games 3276
domain 3274
künftige 3274
verteidigen 3274
cent@@ 3273
arbeits@@ 3273
bedeut@@ 3273
aden 3272
complicated 3272
wonder 3272
ero 3272
Bulgarien 3272
arguments 3271
ap 3271
ordinary 3271
Network 3271
enhance 3270
arbei@@ 3270
exciting 3269
66 3269
flights 3269
Finanzkrise 3269
division 3268
shi@@ 3268
negotiating 3267
swe@@ 3267
Einheit 3267
menschliche 3267
Anti 3266
milk 3266
e.@@ 3265
kt@@ 3264
Sony 3264
Verfassungs@@ 3264
solid 3263
p.m. 3263
Americans 3263
decorated 3263
Pakete 3263
Egypt 3262
EP 3262
verbringen 3262
renovated 3261
sending 3260
realistic 3259
reali@@ 3259
SE 3258
Church 3258
Gegenstand 3258
proceed 3257
societies 3257
Image 3257
harmonisation 3255
Vorhaben 3255
Edition 3251
functional 3250
generate 3250
origin@@ 3250
dige 3249
internen 3249
solely 3248
Webseiten 3248
patent 3247
gemeinschaftlichen 3247
islands 3246
surely 3245
representation 3245
Deutschen 3245
Buchung 3245
organisieren 3245
manufacturer 3244
replaced 3243
extraordinary 3243
vis 3243
ther 3242
avi@@ 3241
meist 3241
cru@@ 3240
sli@@ 3239
enheit 3239
ßt 3239
Entlastung 3239
a. 3238
Je 3238
Medien@@ 3238
institutionelle 3238
wirtschaftlich 3237
Praktiken 3237
Atlantic 3236
Hall 3235
Dusche 3235
18. 3235
Tr@@ 3234
Währungs@@ 3234
Or 3233
Exchange 3233
SD@@ 3233
Anschluss 3233
Rund@@ 3233
leistung 3233
weak 3232
AD 3232
Gegend 3232
kan 3231
Wünsche 3230
Following 3229
ska 3229
Versionen 3229
exit 3227
Gerechtigkeit 3227
carrying 3226
Secretary 3226
youth 3224
Verletzung 3224
gebaut 3224
Sec@@ 3223
Mitarbeitern 3223
konfrontiert 3223
stolz 3223
flü@@ 3222
Kilometer 3222
hon@@ 3221
suites 3221
ziele 3221
Ham@@ 3220
sau@@ 3219
Energien 3219
Übergangs@@ 3219
Stability 3218
Mission 3218
dende 3218
fore@@ 3217
Darum 3217
Show 3216
army 3215
SC@@ 3215
preis@@ 3215
Eisenbahn@@ 3215
Sicherung 3215
allocated 3214
Mari@@ 3214
alo@@ 3213
probleme 3213
Erstellung 3213
valley 3212
letztendlich 3212
Thursday 3211
stars 3211
Description 3211
lift 3210
Sollten 3210
Rom 3209
Kurs 3209
nights 3208
wines 3208
balcony 3208
leistungen 3208
cooperate 3206
kor@@ 3206
ag 3206
Prozesses 3206
Regierungschefs 3206
· 3205
Los 3205
Cri@@ 3204
elektronischen 3204
dé@@ 3203
Las 3203
Anstieg 3203
depend 3202
united 3202
Wol@@ 3202
tex@@ 3202
aufs 3202
succeed 3201
hair 3201
geboren 3201
illegalen 3201
u.a. 3200
Systemen 3200
verkauft 3200
gewonnen 3200
einzusetzen 3200
promised 3199
secret 3199
Wellness 3199
vorzulegen 3198
effizient 3197
gemein@@ 3197
erfolgreichen 3197
sin@@ 3196
individuelle 3196
bereichen 3196
großem 3195
isi@@ 3194
Dru@@ 3194
58 3194
sem@@ 3193
hervor 3193
vorgeschlagene 3193
career 3192
rock 3192
owned 3192
mus 3192
Set 3191
enabled 3190
battle 3190
Preisen 3190
Krisen@@ 3190
individuellen 3190
vermitteln 3189
Digital 3188
Fisch@@ 3188
labor 3188
wohnen 3188
necessarily 3187
professionals 3187
los@@ 3186
maschinen 3186
sprache 3186
schwer@@ 3186
mul@@ 3185
informationen 3185
Oder 3184
kraft@@ 3184
zukünftigen 3184
supplies 3183
ink 3183
behaupten 3183
mini 3182
tier@@ 3182
lus@@ 3182
Sar@@ 3181
wie@@ 3181
lounge 3180
versichern 3180
festival 3179
Ausmaß 3179
Auditors 3178
kg 3178
yl@@ 3177
militärischen 3177
winning 3176
Film@@ 3176
entschlossen 3176
unterstreichen 3175
Within 3174
facility 3174
adults 3174
Verk@@ 3174
allzu 3174
steuern 3174
dich 3173
lessons 3172
Zone 3172
ziel@@ 3172
mother 3171
rt 3171
tende 3171
Schlüssel 3171
teilt 3171
theme 3169
drei@@ 3169
revision 3167
stag@@ 3167
Single 3167
stream 3167
kli@@ 3167
Zuständigkeit 3167
militärische 3167
updates 3166
weitgehend 3166
awarded 3165
ähnliche 3165
proven 3164
Budapest 3163
Bl@@ 3163
digung 3163
barriers 3162
difficulty 3162
appearance 3162
clubs 3162
recorded 3161
Geh@@ 3161
Organe 3161
bedeutende 3161
greatly 3160
farming 3159
Sei@@ 3159
Sonne 3158
überprüft 3158
Socialist 3157
Kauf 3157
zuständig 3157
Gol@@ 3155
pas@@ 3155
alized 3155
tte 3154
zulassen 3154
Lebensmittel 3154
SS@@ 3153
USS 3151
Firmen@@ 3151
Ablehnung 3151
prime 3150
dam@@ 3150
abstimmen 3150
wirksame 3150
mix 3149
AT 3149
Park@@ 3149
Stoffe 3148
Nachbarn 3148
relaxation 3147
PSE 3146
constitute 3146
disk 3146
nit@@ 3146
ney 3144
vorgesehenen 3144
strategische 3143
trial 3142
67 3142
Stre@@ 3142
enzen 3142
ensures 3141
Erfüllung 3140
relative 3139
roll 3139
Tip 3139
Mut 3139
Abschaffung 3139
enabling 3138
poly@@ 3138
safeguard 3138
ered 3138
Widerspruch 3138
significance 3136
packaging 3136
attempts 3136
preventing 3136
Spe@@ 3136
bon@@ 3135
ue 3134
toward 3133
MA 3133
unterzeichnet 3133
Freizügigkeit 3133
import 3131
Canon 3131
Verlust 3131
spreche 3131
Tim@@ 3129
Wohl@@ 3129
manche 3129
tot@@ 3128
Acc@@ 3128
ond 3128
geräte 3128
verbinden 3128
sought 3127
NGOs 3127
kat@@ 3127
interior 3125
Camp@@ 3124
geboten 3124
addresses 3123
labelling 3123
wil@@ 3123
frag@@ 3123
artist 3123
AP@@ 3122
ac 3122
Perspektive 3121
suggested 3120
ç@@ 3120
laufenden 3119
religion 3118
Kroatien 3118
drop 3117
atory 3117
Dauer 3117
forthcoming 3116
explore 3116
thousand 3116
57 3116
Anlass 3116
ausschuß 3116
rich@@ 3115
Hau@@ 3115
iten 3115
betreiben 3115
department 3114
album 3113
concepts 3111
comparison 3111
corner 3111
lots 3111
beschrieben 3111
ards 3110
Fax 3110
fulfil 3109
consent 3109
ñ@@ 3109
gestattet 3109
spoke 3108
fly 3108
ó 3108
freut 3108
legally 3107
Denk@@ 3107
Werke 3107
Städten 3107
windows 3106
ausgerichtet 3106
ater@@ 3105
wohl@@ 3105
ez 3104
eds 3104
Vis@@ 3104
Binnenmarktes 3104
proceedings 3103
budgets 3103
wan@@ 3103
Rich@@ 3103
aj@@ 3102
inklusive 3102
Mrd. 3102
slightly 3101
Les@@ 3101
Freunden 3101
filter 3100
analy@@ 3100
Training 3100
Haushaltsplan 3100
forests 3099
xi@@ 3099
Law 3099
Poly@@ 3098
ähnlich 3098
Prozesse 3098
PC@@ 3097
Betrag 3097
productive 3096
tennis 3096
enth@@ 3096
Miss@@ 3096
Handels 3096
Kulturen 3096
ain 3095
zuge@@ 3095
paying 3094
angesehen 3093
Back@@ 3092
lock 3091
Mach@@ 3091
5. 3091
introducing 3090
subjects 3089
dorf 3089
erin 3089
gap 3088
decade 3088
stocks 3088
Belgien 3088
Puerto 3087
Grad 3087
hren 3087
Aktionsplan 3087
Bes@@ 3086
Nord 3086
Industri@@ 3086
Facilities 3086
sovereignty 3085
specified 3085
fitness 3085
Kno@@ 3084
tur 3084
Massen@@ 3084
lieb@@ 3084
Viertel 3083
EA 3082
änden 3082
Year 3081
lers 3081
dischen 3081
Trotzdem 3081
hundred 3080
scht 3080
sustainability 3079
visiting 3079
Gleichstellung 3079
liberal 3078
eurozone 3078
verfügbaren 3078
resource 3077
imm@@ 3077
val 3077
Software@@ 3077
supervision 3076
ash 3075
heim@@ 3075
Grünen 3074
ersetzen 3074
stru@@ 3073
Know 3073
beantworten 3072
mischen 3072
Vorausschau 3072
obliged 3071
directed 3071
yed 3071
omm@@ 3071
funktion@@ 3071
tierte 3071
Marke 3071
Situationen 3071
suggestions 3070
accurate 3069
bet 3069
1st 3069
sz@@ 3069
vieles 3069
AN 3067
Rat@@ 3067
routes 3066
räume 3066
perfekt 3066
tischer 3066
firmly 3065
Like 3065
armed 3065
Kra@@ 3065
Volksgesundheit 3065
Serbia 3064
verein@@ 3064
Wo 3063
gestellten 3063
gran@@ 3062
sm 3061
Märkten 3061
Gericht 3060
straight 3059
pun@@ 3059
Sand@@ 3058
fall@@ 3058
studio 3058
entwickelte 3058
disasters 3057
integriert 3057
Volkes 3057
virtual 3056
unabhängigen 3056
Tätigkeiten 3056
kes 3055
topics 3054
don@@ 3054
gerät 3054
cosy 3053
Eigentum 3053
towns 3052
sheet 3052
Befugnisse 3052
seh@@ 3051
OL@@ 3051
sü@@ 3051
supposed 3050
Arbeit@@ 3050
messen 3050
directory 3049
portal 3049
Gold@@ 3049
aktiven 3049
Konflikte 3049
konzentriert 3049
Tibet 3048
tourists 3048
Pläne 3048
tin@@ 3047
weiten 3047
Videos 3046
label 3044
projekte 3044
anschließen 3043
undoubtedly 3042
coordinated 3042
IMF 3042
.000 3041
receiving 3039
exploitation 3039
Struktur@@ 3039
eventually 3038
Amt 3038
buch 3038
zukünftige 3038
gained 3037
sit 3037
erzeugt 3037
sole 3036
Schwer@@ 3036
Einkaufs@@ 3036
beobachten 3035
Redner 3035
Fle@@ 3034
university 3034
estimated 3033
obstacles 3033
werk@@ 3033
chtung 3033
Allianz 3032
TI@@ 3031
politisches 3031
auftreten 3031
Fal@@ 3030
hof 3029
disabled 3028
Schiff@@ 3028
88 3027
2015 3027
tigt 3027
ernsthaft 3027
atische 3026
arise 3025
Director 3025
IB@@ 3025
asse 3025
AR 3024
stylish 3024
4. 3024
bekannte 3024
Finland 3023
exclusion 3023
conc@@ 3022
Commissioners 3022
traditions 3021
Based 3021
Kriegs@@ 3021
mitteilen 3021
contributed 3020
AC 3020
ble@@ 3020
.org 3020
schul@@ 3020
jährige 3019
verteilt 3019
welcomed 3018
mobili@@ 3018
mas 3018
alt@@ 3018
kette 3018
traditionelle 3018
Asian 3017
stro@@ 3016
ama 3016
electric 3016
notes 3015
Earth 3015
offene 3015
Kontakte 3015
zeichnen 3014
Stand@@ 3013
tom@@ 3013
reduziert 3013
hervorgehoben 3012
dignity 3011
periods 3011
han@@ 3011
Meines 3011
Point 3010
tem@@ 3009
lon@@ 3009
whereas 3008
cou@@ 3008
Führ@@ 3008
endorse 3007
gering 3007
Est@@ 3007
App@@ 3007
realise 3006
Having 3006
Design@@ 3006
Tab@@ 3005
gent@@ 3005
mussten 3005
Gemein@@ 3005
suffered 3004
centuries 3003
techn@@ 3003
sah 3003
gemeinschaft 3003
slo@@ 3002
§ 3002
wonach 3002
punkte 3002
Konto 3002
Py@@ 3001
langfristig 2999
beings 2998
ère 2998
U.S. 2998
verdienen 2998
ect 2997
supplier 2997
shipping 2996
Rom@@ 2996
portfolio 2996
Zusätzlich 2996
jährigen 2996
gründen 2996
ail@@ 2995
pm 2994
belief 2993
adapt 2993
wear 2993
jetzigen 2993
gewähren 2993
input 2992
Gerade 2992
ath 2991
geo@@ 2991
Wo@@ 2991
krise 2991
festzulegen 2991
tan 2990
missing 2989
Balkan 2989
fran@@ 2989
Brenn@@ 2989
ú@@ 2988
© 2988
77 2987
geraten 2987
Rechtsstaatlichkeit 2987
Wohnung 2986
ungsverfahren 2986
grenzen 2986
nachdrücklich 2986
tically 2985
Asyl@@ 2985
handle 2985
wasser 2985
Schiffe 2985
richtet 2985
Lieferung 2985
Je@@ 2983
vice 2982
planet 2982
Organ@@ 2981
bot@@ 2981
humanitäre 2981
mine 2980
vacation 2980
struktur 2980
reservations 2979
treat 2979
remarks 2978
stages 2978
va@@ 2977
mental 2977
Rechten 2977
Regional 2976
clause 2976
15. 2976
hardly 2975
a.@@ 2975
fahrer 2975
dankbar 2975
kontrolle 2975
restructuring 2974
theory 2974
lab@@ 2974
cel@@ 2973
Open@@ 2973
violations 2972
restricted 2972
Gang 2972
Modelle 2972
Veränderung 2972
refers 2971
OM@@ 2971
Ferien@@ 2971
bisherigen 2971
Salzburg 2970
Menü 2970
Dep@@ 2969
89 2968
plenty 2968
Glück 2968
staat 2968
vorliegende 2968
turning 2967
Good 2967
Strom@@ 2967
steigt 2967
gedacht 2967
reflected 2966
wrote 2965
gardens 2965
stä@@ 2965
investigation 2964
Balkon 2964
erreichbar 2964
gebeten 2964
sup@@ 2962
í 2962
effiziente 2962
programming 2961
set@@ 2961
entrance 2960
Menschen@@ 2960
wachsenden 2960
believes 2959
parliament 2959
11.@@ 2959
93 2958
ques 2958
chter 2958
Guests 2958
scene 2957
films 2957
gesetz@@ 2957
rati@@ 2956
absch@@ 2956
Cat@@ 2955
kernel 2955
invited 2954
reflects 2954
Öl 2954
checks 2953
ET 2953
Hil@@ 2953
Lounge 2953
hoffentlich 2953
gungen 2953
Berichten 2953
finish 2952
Opposition 2952
Son@@ 2952
unabhängige 2952
pot@@ 2951
severe 2951
Letz@@ 2951
märkte 2951
sische 2951
ursprünglich 2951
elled 2950
zeug@@ 2950
Monday 2949
explained 2949
62 2949
connect 2949
deswegen 2949
permitted 2948
spectacular 2948
nah@@ 2948
Quali@@ 2948
Währungsunion 2948
Lab@@ 2947
fs@@ 2947
langsam 2947
ausgaben 2947
einzuführen 2947
faith 2946
Main 2946
einheitliche 2946
wahren 2946
penalty 2945
Kriminalität 2945
sphere 2943
wage 2943
everyday 2943
Nich@@ 2943
patient 2943
Respekt 2943
Vorlage 2943
82 2942
Bil@@ 2942
programms 2942
vollständigen 2942
ssi@@ 2940
BMW 2940
gelassen 2940
trau@@ 2939
Abhängigkeit 2939
behoben 2939
Investitions@@ 2939
movements 2938
Vit@@ 2938
Doha 2938
Ster@@ 2938
ech@@ 2937
Sunday 2937
Branche 2937
gegen@@ 2937
beschränken 2937
Professor 2936
selling 2936
Prin@@ 2936
äm@@ 2936
decken 2936
hum@@ 2935
Frei@@ 2935
gerich@@ 2935
unterscheiden 2935
überein 2935
shift 2934
assess 2934
Fon@@ 2934
SAP 2934
ize 2933
organ@@ 2932
approve 2931
Nu@@ 2931
Fü@@ 2931
leaves 2930
Zeitung 2930
geln 2930
oning 2929
courage 2929
beendet 2929
cle@@ 2928
Beteiligten 2928
twenty 2927
ish@@ 2927
Ganz 2927
gelingt 2927
trends 2926
decline 2926
ré@@ 2926
EX@@ 2926
Bahn@@ 2926
richtlinie 2926
tables 2924
dienst@@ 2924
ergibt 2924
Gemeinsame 2924
Mittelmeer 2924
dness 2923
Neben@@ 2923
deckt 2923
ander@@ 2922
driven 2922
sierte 2922
cell@@ 2921
regardless 2920
wards 2920
nde 2920
liefer@@ 2920
terung 2920
OR 2919
Programm@@ 2919
Bereitschaft 2919
Fahrzeuge 2919
praktische 2919
Runde 2919
festgelegten 2919
fourth 2918
Master 2918
fertig 2918
Theater 2917
Würde 2917
enhanced 2916
Air@@ 2916
AM 2916
recognized 2916
Garden 2916
gefallen 2916
Rückkehr 2916
therapy 2915
Tool 2915
übersch@@ 2915
Übernachtung 2915
Feld 2915
Weiteren 2914
zahl 2914
Gran 2913
enthaltenen 2913
dungen 2913
parks 2912
Autom@@ 2912
zugrunde 2912
welcomes 2911
DC 2911
Georgia 2911
S. 2911
erfordern 2911
Identi@@ 2910
angebot 2910
hill 2909
Weg@@ 2908
konferenz 2908
worst 2907
filled 2907
mo 2907
ziert 2907
jo 2906
mod@@ 2906
Content 2906
zung 2906
erfreut 2906
imagine 2905
täglichen 2905
kontrollieren 2905
unfair 2904
dom@@ 2904
ela 2904
entes 2904
Jahrzehnten 2904
umsetzen 2904
Cha@@ 2902
Ton@@ 2902
tree 2901
initi@@ 2900
bonus 2900
angeb@@ 2900
lovely 2899
Armee 2899
dan 2898
zentren 2898
lieber 2898
cas@@ 2897
ania 2896
Hü@@ 2896
considerably 2895
none 2895
strengthened 2894
Führer 2894
oo@@ 2893
Don 2893
Boden@@ 2893
stischen 2893
urs 2892
Quality 2892
fördert 2892
Consumer 2891
Cra@@ 2891
Ag@@ 2891
Education 2890
weekend 2887
irre@@ 2886
ited 2886
homes 2886
XP 2886
Sein 2886
philosophy 2885
conventional 2885
sper@@ 2885
brechen 2885
cancer 2884
indicate 2883
ön@@ 2883
IWF 2883
ov 2882
ico 2882
angepasst 2882
geäußert 2882
Aqu@@ 2881
Str@@ 2880
description 2879
enterprise 2879
hung 2879
enorme 2879
Does 2878
artistic 2878
EG@@ 2878
Tools 2878
Bars 2878
Raum@@ 2878
hearing 2877
Tau@@ 2877
ghts 2877
Aut@@ 2877
fans 2877
angegeben 2877
Verteilung 2877
Vertrages 2877
dollar 2876
inger 2876
tei@@ 2876
Nummer 2876
78 2875
Mad@@ 2875
Pf@@ 2875
Ebenen 2875
Basi@@ 2874
videos 2874
Apple 2874
standen 2874
magnificent 2873
Wählen 2873
hierbei 2873
CAP 2872
Kanada 2872
Ursachen 2872
hr 2871
Schulden 2871
CON@@ 2870
aging 2869
wirkt 2869
HIV 2868
sou@@ 2868
häuser 2867
erwähnen 2867
dream 2866
Charles 2865
bares 2865
Öffnung 2864
continuous 2863
arm@@ 2863
overview 2863
Agenturen 2863
protocol 2862
iel@@ 2862
vessels 2861
Audio 2861
geschichte 2861
verbindet 2861
ased 2860
Wur@@ 2859
Geneva 2859
publication 2859
non@@ 2859
schwei@@ 2859
Notes 2858
zurückzuführen 2858
Tourism 2857
olo@@ 2857
shadow 2857
acknowledge 2857
tos 2857
externen 2857
cells 2855
layer 2855
Dritten 2855
Donnerstag 2855
bestimmungen 2855
lik@@ 2854
Holiday 2854
eingegangen 2853
besorgt 2853
threats 2852
generations 2852
bach 2852
hart 2852
Personal@@ 2852
interessant 2852
Kontinent 2852
Faktor 2852
Stockholm 2851
Culture 2851
PRO@@ 2850
hostel 2850
unterliegen 2850
vereinbart 2850
ace 2849
Mont@@ 2849
aner 2849
überaus 2849
stärkere 2849
Arbeitsplatz 2849
Berichterstatters 2849
covering 2848
Besides 2847
tea 2847
profits 2846
everybody 2846
Zahlungen 2846
17. 2846
Börse 2845
gestärkt 2845
rup@@ 2844
lad@@ 2844
prospects 2844
Res@@ 2844
Dafür 2844
undertaken 2843
Gerät 2843
erkannt 2842
rely 2841
Tour@@ 2841
ł@@ 2841
vertrag 2841
freundlich 2841
bewältigen 2841
ust 2840
aside 2840
Wandel 2840
appropriations 2839
promise 2839
pillar 2839
fishermen 2839
worthy 2838
CE 2838
Vereinfachung 2837
departure 2836
Corporate 2836
Valley 2836
ye@@ 2836
einzigartigen 2836
Beseitigung 2836
Through 2835
Sind 2835
antworten 2835
eck@@ 2834
Lauf@@ 2834
besonderer 2834
verwende 2834
excluded 2833
trac@@ 2833
viel@@ 2833
senken 2833
modules 2832
pure 2832
shot 2832
parameters 2832
Co 2832
fi 2832
managing 2831
Protocol 2831
zuzu@@ 2831
egt 2830
zus@@ 2830
überwinden 2830
türkischen 2830
James 2829
reaction 2828
Lie@@ 2828
rental 2828
Investoren 2828
killed 2827
sern 2827
Guide 2826
acceptance 2826
restore 2826
Debatten 2826
gegenwärtige 2826
equi@@ 2825
Sou@@ 2825
erst@@ 2825
Internationale 2825
SQL 2825
Nahrungsmittel@@ 2824
Ide@@ 2823
Spaß 2823
nutz@@ 2822
Kapital 2822
Parlamente 2821
territorial 2820
Who 2820
mati@@ 2820
Pass@@ 2820
kern 2820
sogenannten 2819
Tausende 2819
ologische 2818
optimale 2818
griechischen 2818
Vater 2817
sections 2816
Sudan 2816
Gelder 2816
specialist 2815
anhand 2815
pour 2814
Town 2814
targeted 2813
&apos;m 2813
Erinnerung 2813
Amerikaner 2813
errors 2812
Sy@@ 2812
eigen@@ 2812
nom@@ 2811
Resolution 2810
Schw@@ 2810
iPhone 2810
Wikitravel 2810
behörde 2810
ließen 2810
Hot@@ 2809
eti@@ 2809
beru@@ 2809
ences 2808
Cu@@ 2807
sach@@ 2807
methoden 2807
sichtbar 2807
auto@@ 2806
smus 2805
Wirtschaftskrise 2805
lauf@@ 2804
concentrate 2803
symbol 2803
sab@@ 2802
renowned 2802
fairly 2801
sparen 2801
Körper@@ 2801
OF 2799
Verarbeitung 2799
oper@@ 2798
Reserve 2798
herunterladen 2798
Tages 2797
deeply 2796
dere 2796
Hardware 2796
Family 2795
organic 2795
wis@@ 2794
amb@@ 2794
Termin@@ 2794
spek@@ 2794
Administration 2793
colours 2793
boost 2792
ze@@ 2792
ky 2792
Lok@@ 2792
umfassend 2792
ished 2791
ret@@ 2791
Straßburg 2791
Wesentlichen 2791
roots 2788
Gesam@@ 2788
letzter 2788
listings 2786
Landes@@ 2786
Playa 2786
nbsp 2785
schweren 2785
urgently 2784
drinks 2784
Jugend 2784
bedanken 2784
Werbe@@ 2783
verwaltung 2783
Mechanismen 2783
functionality 2782
Space 2782
Vietnam 2782
Sachen 2782
speichern 2782
universities 2781
deposit 2781
Such@@ 2781
kleines 2780
negativen 2780
ž@@ 2779
Steuerung 2779
hohem 2779
dauert 2778
handel 2778
normalen 2778
Potenzial 2778
verboten 2777
Touristen 2777
Geschäft 2777
peri@@ 2776
Tex@@ 2775
instructions 2774
ffen 2774
Gri@@ 2774
Alt@@ 2774
kri@@ 2774
hervorragenden 2773
eil 2772
rum 2772
Should 2771
mess@@ 2771
sk 2771
natürliche 2771
wechsel@@ 2771
gefragt 2771
Ombudsman 2770
ema 2769
Umweltschutz 2769
Sat@@ 2768
Zusammenhalt 2768
Einwohner 2768
Erhaltung 2768
Senkung 2768
luxurious 2767
Standort 2767
countryside 2766
freely 2766
Sü@@ 2766
gesellschaften 2766
anschließend 2766
kontaktieren 2766
trä@@ 2765
Zypern 2765
langfristigen 2765
ori 2764
Tan@@ 2764
transmission 2764
Sem@@ 2764
Source 2764
nam@@ 2763
accident 2763
saved 2763
ix 2763
umfangreiche 2763
ranging 2762
reconstruction 2762
Syria 2762
sex 2762
eit 2762
Andere 2762
63 2761
untersucht 2761
Großteil 2761
sufficiently 2760
proportion 2760
showed 2760
intends 2759
confirmation 2759
CHF 2759
dische 2759
Freitag 2759
verantwortungs@@ 2759
e- 2758
inmitten 2758
geprägt 2758
hingegen 2758
push 2757
Cup 2757
Dialogs 2757
wunderschönen 2757
revolution 2756
Posi@@ 2756
Sicherheitspolitik 2756
aqu@@ 2755
alisiert 2755
Lim@@ 2754
betra@@ 2754
Frist 2754
Labour 2753
arti@@ 2753
tab@@ 2753
normalerweise 2753
Luxemburg 2752
tief 2752
auffordern 2752
zwingen 2752
bekommt 2751
insi@@ 2750
nine 2750
lev@@ 2750
rare 2750
tau@@ 2750
Suiten 2750
lenken 2750
gut@@ 2749
brachte 2749
ately 2748
Pul@@ 2748
Vista 2748
letz@@ 2748
Wähler 2748
sam 2747
sichergestellt 2747
spec@@ 2746
miles 2746
Ant@@ 2746
angemessenen 2746
angewendet 2746
Verb@@ 2744
beenden 2744
alisieren 2744
dans 2743
gehenden 2743
Handlungs@@ 2743
ease 2742
NO@@ 2742
dead 2741
Email 2741
Kopenhagen 2741
empfangen 2741
Kampagne 2741
derzeitige 2741
Mandat 2741
desk 2740
Stu@@ 2740
Hans 2739
aro@@ 2739
enge 2739
Stiftung 2739
Lizenz 2739
94 2738
Presse 2738
Heizung 2738
ativer 2738
individuell 2737
verweisen 2737
füllen 2737
buch@@ 2736
Staats- 2736
geeignete 2736
destroyed 2735
Saudi 2735
hier@@ 2735
entspannen 2735
tech 2734
Up 2734
ST 2734
Kandidaten 2734
Quellen 2734
internationally 2733
diplomatic 2733
esch@@ 2733
äh@@ 2733
ländliche 2733
Papier 2732
finanzieren 2732
Meeting 2731
schei@@ 2731
glaub@@ 2731
ress 2730
tiz@@ 2730
Marken 2730
heading 2729
sil@@ 2729
remained 2728
6. 2728
voraus@@ 2728
logical 2727
mere 2727
Christ@@ 2727
gestaltung 2727
gaben 2727
unentgeltlich 2727
Bis@@ 2726
Zer@@ 2726
stieg 2726
plätze 2726
Generationen 2726
Leitung 2726
leichter 2726
Quelle 2725
fleet 2724
ny 2724
gei@@ 2724
Büro 2724
nützlich 2724
subsequent 2723
analyse 2723
speci@@ 2723
erstmals 2723
froh 2723
eff@@ 2722
stattfindet 2722
birth 2721
poses 2721
91 2721
asp@@ 2721
irischen 2721
lauf 2721
enter@@ 2720
Thailand 2720
Islam@@ 2720
Kurz@@ 2720
Kern 2720
produzieren 2720
zweitens 2720
Industry 2718
skiing 2718
struggle 2717
Berg 2717
Ol@@ 2717
TE 2717
Gehminuten 2717
entgegen 2717
erhielt 2717
Niederlanden 2717
forschung 2716
Ausflüge 2716
ans@@ 2715
equivalent 2714
Regulierung 2714
coherent 2713
fees 2713
industri@@ 2712
Elektro@@ 2712
16. 2712
iling 2711
Saddam 2711
Sammlung 2711
realer 2711
Islands 2710
leb@@ 2709
spiele 2709
adapted 2708
looked 2708
arian 2708
anz 2707
berichten 2707
leich@@ 2707
learned 2705
gangs 2705
Project 2705
hochwertige 2705
existiert 2705
Lastly 2704
unden 2704
sä@@ 2704
heißen 2704
relates 2703
ile 2703
Herz 2703
Fehler@@ 2703
football 2702
crises 2702
lob@@ 2702
antes 2702
korrekt 2702
konkret 2702
Umweltfragen 2702
upper 2701
museums 2701
Dokumenten 2701
arrived 2700
Rio 2700
heim 2700
utili@@ 2699
Denmark 2699
cleaning 2698
Hong 2697
kal@@ 2697
highlighted 2696
wendet 2696
Provinz 2695
denjenigen 2695
Todesstrafe 2695
lec@@ 2694
basi@@ 2693
arising 2692
candidates 2692
produk@@ 2692
geplant 2692
effektive 2692
HD 2691
Schweizer 2691
Situated 2691
Grün@@ 2691
sammeln 2691
drücken 2690
LU@@ 2689
Mir 2689
fanden 2689
DO@@ 2688
TA 2688
Partner@@ 2688
Computer@@ 2687
enjoyed 2686
combine 2686
Hö@@ 2686
GAP 2686
sounds 2685
servi@@ 2685
Consequently 2684
enger 2684
Inflation 2684
Wander@@ 2684
gue 2683
sees 2683
Bestimmung 2683
lösungen 2683
Volkswirtschaften 2682
bat@@ 2681
Blue 2681
Pet@@ 2681
dargestellt 2681
unterschiedlich 2681
mistake 2680
collected 2680
funded 2679
Hohe 2679
presenting 2678
essentially 2678
bereiten 2678
convergence 2677
classes 2677
neighbouring 2677
New@@ 2677
schnellen 2677
Stärke 2677
villages 2676
wär@@ 2676
diert 2676
verfahrens 2676
Datei@@ 2676
sektors 2676
ativ@@ 2675
Pack 2674
dd@@ 2674
inten@@ 2673
Kong 2673
female 2672
oria 2672
Telefon@@ 2672
palästinensischen 2672
phenomenon 2671
wild 2671
ride 2670
Diam@@ 2670
rechnen 2670
consulting 2669
Belgian 2669
faces 2668
fir@@ 2668
serving 2668
Tor 2668
appeared 2667
81 2667
69 2667
inner 2667
designs 2667
Schulden@@ 2667
Fru@@ 2666
pack@@ 2666
illi@@ 2666
vornehmen 2666
computers 2665
smo@@ 2665
Pil@@ 2665
eo 2665
Customer 2665
Hat 2665
Küsten@@ 2665
ator@@ 2664
Gemeinschaften 2664
Hindernisse 2664
euros 2663
Common 2663
Place 2663
müsste 2663
Ägypten 2663
cked 2662
Rahmen@@ 2662
joining 2661
Verlauf 2661
denk@@ 2660
Industrie@@ 2660
gewi@@ 2660
Dat@@ 2659
Tonnen 2659
dge 2658
ols 2658
Premierminister 2658
publi@@ 2657
quotas 2657
Investment 2657
Next 2656
belong 2656
reliability 2656
Kohäsionspolitik 2656
Andererseits 2656
ils 2655
benen 2655
integrierten 2655
modi@@ 2654
super 2654
Zimmer@@ 2654
ía 2654
Minute 2653
ausgezeichnet 2653
Mechanismus 2653
40@@ 2652
pools 2652
europäisches 2652
Gast 2652
Wirtschaftspolitik 2652
chair 2651
lag@@ 2651
untersuchen 2651
considers 2650
missions 2650
blocks 2650
Che@@ 2650
7. 2650
73 2649
cultures 2649
supplied 2649
dens 2649
Treaties 2648
characters 2648
Passwort 2648
festen 2647
intelligent 2646
ord 2646
keinem 2646
Mexiko 2646
forth 2645
ford 2645
entscheidenden 2645
assembly 2644
selten 2644
zukommen 2644
warning 2643
aria 2643
thermal 2643
mögen 2643
aling 2642
ecological 2642
Willkommen 2642
gkeiten 2642
karten 2641
Dingen 2641
willingness 2640
aut 2640
derung 2640
briefly 2639
chn@@ 2639
Drittel 2639
sn@@ 2638
Institut 2638
archi@@ 2638
kel@@ 2638
processed 2637
61 2637
Netz@@ 2637
kehr@@ 2637
gg@@ 2635
insist 2635
Maschine 2635
bereitet 2635
Pen@@ 2634
Mah@@ 2634
contextual 2634
Vertretern 2634
modell 2633
humanitären 2633
führten 2633
ental 2632
erweitern 2632
Constitutional 2631
fei@@ 2631
Kir@@ 2631
Venice 2631
74 2630
Sim@@ 2630
Berliner 2630
müssten 2630
Geschwindigkeit 2630
ci 2629
dialog 2629
hän@@ 2629
Versammlung 2629
High@@ 2628
max 2628
Mes@@ 2628
MP3 2628
prozesse 2628
Anwendungs@@ 2628
efficiently 2627
affects 2627
Kam@@ 2627
hierfür 2627
auer 2626
öh@@ 2626
schen@@ 2626
bedeutenden 2626
aufgebaut 2626
intern@@ 2625
bestellen 2625
zeichn@@ 2625
Mittelmeer@@ 2625
shed 2624
letters 2624
Dol@@ 2623
Nachhaltigkeit 2623
engage 2622
Geschmack 2622
occurred 2621
referring 2621
highlights 2621
consequence 2620
cam@@ 2620
villa 2620
fein@@ 2620
multilateral 2617
überlassen 2617
diesbezüglich 2617
lichkeiten 2617
Urteil 2617
Australia 2616
präsentieren 2616
Außen- 2616
offizielle 2615
transferred 2614
honour 2613
rem@@ 2613
Indian 2613
fix 2613
folge 2612
CE@@ 2611
76 2611
mei@@ 2611
Cookies 2611
geleitet 2611
engaged 2610
weite 2610
implications 2609
Castle 2609
fas@@ 2608
Zug 2608
Energieeffizienz 2608
gleichermaßen 2608
widespread 2607
Cooperation 2607
cious 2607
s- 2607
Fein@@ 2607
geographical 2606
motor@@ 2606
sible 2606
Augenblick 2606
Sektors 2606
ind 2605
famili@@ 2605
rechtzeitig 2605
kontrolliert 2604
erklärte 2604
coun@@ 2603
steigern 2603
Arbeitnehmern 2603
script 2602
chinesische 2602
gewünschten 2602
kräfte 2601
Parameter 2601
illegale 2601
prisoners 2600
Blut@@ 2600
Schon 2600
gefährdet 2600
voraus 2600
Full 2599
ville 2599
Umwel@@ 2599
Reisen 2599
Kranken@@ 2599
eat 2598
Pop@@ 2598
Dro@@ 2598
servers 2598
stic 2597
panel 2597
LA 2596
losigkeit 2596
avec 2595
read@@ 2595
hil@@ 2595
legi@@ 2595
Dass 2595
passt 2595
uniform 2594
SM@@ 2594
IV@@ 2594
pressing 2593
mouth 2593
UNESCO 2593
recognize 2593
festzustellen 2593
revenue 2592
Hon@@ 2592
fax 2592
Mak@@ 2592
dos 2592
Verwirklichung 2592
Innovationen 2591
pfen 2591
clarify 2590
tre 2590
amed 2590
unity 2590
guided 2590
Mr. 2590
Kompetenz 2590
Polizei@@ 2590
originally 2589
succeeded 2589
mol@@ 2589
mes@@ 2589
tenen 2589
Versorgung 2589
Bot@@ 2588
UT@@ 2588
hö@@ 2588
wür@@ 2587
Fernsehen 2587
seeks 2586
armen 2585
wireless 2584
ok 2584
vorbei 2584
GN@@ 2583
Tar@@ 2583
Macht@@ 2583
Beide 2583
anzunehmen 2583
satisfy 2582
achievement 2582
adds 2582
iner 2582
Stimm@@ 2582
freundlichen 2582
Beachtung 2582
holds 2581
Projekts 2581
könnt 2580
sla@@ 2579
Lang@@ 2579
gungs@@ 2579
Finde 2579
Federation 2578
qualitativ 2578
Ari@@ 2577
Gemeinde 2577
teils 2577
lived 2576
aire 2576
yo@@ 2576
Demokraten 2576
Ratschlag 2576
causing 2575
Tests 2575
Jugend@@ 2575
bezahlt 2575
incentives 2574
Fundamental 2574
pick 2574
leu@@ 2574
Erst 2574
gelesen 2574
freundliche 2573
weltweite 2573
¤ 2573
Errichtung 2573
favourable 2572
Sit@@ 2572
suit 2572
EX 2572
10. 2572
digitalen 2572
soeben 2572
Modernisierung 2572
Mei@@ 2571
director 2571
ks@@ 2571
Det@@ 2571
Rein@@ 2571
xen 2571
Symbol 2571
eben@@ 2571
Verbraucherschutz 2571
Gest@@ 2570
kten 2570
genaue 2570
Stuttgart 2569
Instruments 2569
8. 2569
entspann@@ 2569
victory 2568
solar 2568
Kommissions@@ 2568
environmentally 2567
integrate 2567
su 2567
Ker@@ 2567
wirkliche 2567
schwierige 2567
lobby 2566
nummer 2566
Genießen 2565
tively 2564
ume 2564
Gay 2564
viertel 2564
isen 2564
trägen 2564
promises 2563
Journalisten 2563
Orte 2563
Produk@@ 2563
secondly 2562
mittlerweile 2562
Registrierung 2562
infolge 2562
aux 2561
Muslim 2561
lunch 2561
accidents 2560
ries 2560
dark 2560
Authority 2560
Joint 2560
hy@@ 2560
Deutsch 2559
begleitet 2559
dumping 2558
encouraged 2558
agi@@ 2558
Parkplatz 2558
Ergebnissen 2558
regelung 2558
wettbewerbs@@ 2558
operates 2557
trips 2557
schla@@ 2557
executive 2556
zieh@@ 2555
befasst 2555
anniversary 2554
Helsinki 2553
adding 2553
Akteure 2553
Smoking 2552
Schloss 2552
heads 2551
compact 2551
aviation 2550
dal 2550
Widerstand 2550
Alexander 2549
meaningfully 2549
gesetzlichen 2549
angewandt 2549
Fan@@ 2548
programmen 2548
Pin@@ 2547
otel 2547
poorest 2546
Brand@@ 2546
wesentlicher 2546
OECD 2545
Feu@@ 2545
reserved 2544
iler 2544
wellness 2544
Bade@@ 2544
leitung 2544
explanation 2543
phones 2543
Hier@@ 2543
Mallorca 2543
effek@@ 2543
Argumente 2543
Souveränität 2543
scientists 2542
ès 2542
ong@@ 2542
altet 2542
ergänzt 2542
stake 2541
printed 2541
Friendly 2541
ulate 2540
VER@@ 2540
Spitzen@@ 2540
rating 2539
gio 2539
langer 2539
Piazza 2539
Schreiben 2539
Glauben 2538
wh@@ 2537
Mün@@ 2537
blei@@ 2537
Wirksamkeit 2537
unforgettable 2536
König 2536
gewählten 2536
explo@@ 2535
iled 2535
HU 2535
Darstellung 2535
groß@@ 2535
Reservierung 2535
Tabak@@ 2535
virtually 2534
spezi@@ 2534
Kategorien 2534
Ausarbeitung 2534
regulated 2533
preserve 2533
everywhere 2533
Sound 2533
oms 2533
switch 2532
weisung 2532
entering 2531
stück 2531
frühen 2531
enthalt 2531
wert@@ 2531
EB@@ 2530
harmful 2529
radical 2529
grown 2529
wand@@ 2529
Listings 2529
12. 2529
zü@@ 2529
Jugendlichen 2529
Übrigen 2529
execution 2528
Teams 2528
1980 2528
13. 2528
Burma 2527
Stat@@ 2527
geregelt 2527
manufacture 2526
Saturday 2526
Cho@@ 2526
außen 2526
Ausweitung 2526
individually 2525
hopes 2525
stätigkeit 2525
attached 2524
Joseph 2524
Cli@@ 2524
Mö@@ 2524
ening 2523
hast 2523
Dritte 2523
grenz@@ 2523
governing 2522
Emp@@ 2522
dry 2522
Handel@@ 2522
zentral 2522
Abendessen 2521
Bibliothek 2521
ells 2520
asser@@ 2520
inde@@ 2519
Bearbeitung 2519
kontextuellen 2519
enforcement 2518
PP@@ 2518
Religion 2518
Plas@@ 2518
chti@@ 2518
Red@@ 2517
Don@@ 2517
resulted 2516
incorporated 2516
boards 2516
Nigeria 2516
itäts@@ 2516
percentage 2515
delicious 2515
Bag@@ 2515
bewahren 2515
Danish 2514
vous 2514
ete 2514
Haben 2514
Fehl@@ 2514
compulsory 2513
negotiation 2513
fundament@@ 2513
Auftrags@@ 2513
entdeckst 2513
produces 2512
ratification 2512
automati@@ 2512
wir@@ 2512
Somit 2512
OLAF 2511
beeinflussen 2511
Führungs@@ 2511
factory 2510
cell 2509
Cuba 2509
ever@@ 2509
empfohlen 2509
melden 2509
Aufsichts@@ 2509
dict@@ 2508
Präsenz 2508
festlegen 2508
anywhere 2507
sterben 2507
Wiederaufbau 2507
amended 2506
komplette 2506
On@@ 2505
Ansch@@ 2505
legitimacy 2504
reporting 2504
ats@@ 2504
kümmern 2504
purely 2503
ami 2503
graphic 2503
zig 2503
grammatically 2503
contextually 2503
verletzt 2503
kop@@ 2502
asset 2502
eta 2502
Road 2501
formats 2501
Spezial@@ 2501
erzeugen 2501
hinzufugen 2501
onn@@ 2500
Hostel 2500
damages 2499
catch 2499
snow 2499
Mark 2499
eingestellt 2499
Finnland 2499
zunehmen 2499
Christmas 2498
inner@@ 2498
Nor 2497
Chile 2497
deck@@ 2497
stellungs@@ 2497
grammatisch 2497
itable 2496
addressing 2496
Bedürfnissen 2496
afrikanischen 2496
kontextuell 2496
gradually 2495
physi@@ 2495
Ah@@ 2494
with@@ 2494
án 2494
900 2494
Montag 2494
Höchst@@ 2494
bearing 2493
marine 2493
travelling 2493
Cy@@ 2493
loser 2493
Nah@@ 2493
Ankunft 2493
SU@@ 2492
bewerten 2492
Rap@@ 2491
let@@ 2491
hot@@ 2491
tum 2491
gener 2491
zerstört 2491
Schlusselwort 2491
Schlusselphrase 2491
quali@@ 2490
det@@ 2490
aufzubauen 2490
klassischen 2489
aufgezahlt 2489
Jan@@ 2488
ober@@ 2488
Sitz@@ 2488
fur@@ 2487
makers 2487
ras 2487
Zy@@ 2487
wort 2487
Gor@@ 2486
alcohol 2486
egal 2486
Schla@@ 2486
praktischen 2485
tra 2484
stem 2484
Port@@ 2484
stische 2484
collect 2483
Fisheries 2483
ont 2483
dispute 2482
surprise 2482
einf@@ 2482
Mutter 2482
heben 2482
normally 2481
din 2481
beseitigen 2481
Anbetracht 2481
seconds 2480
wege 2480
Kreditkarte 2480
Es@@ 2479
ere@@ 2479
Š@@ 2479
mö@@ 2479
älteren 2479
momentan 2479
chairman 2478
meets 2478
Florenz 2478
Ausbildungs@@ 2478
behält 2477
zero 2476
par 2476
lichsten 2476
Herbst 2476
Anwender 2476
Vorsitzenden 2476
edition 2475
utmost 2474
Herz@@ 2474
verringert 2474
choices 2473
Civil 2473
KDE 2473
Hinweise 2473
wirtschafts@@ 2473
mangel@@ 2473
associations 2472
vorgelegten 2472
sin 2470
Kontakt@@ 2470
Werten 2470
extending 2469
gekennzeichnet 2469
Pr@@ 2468
oftmals 2468
ausüben 2468
87 2467
wald 2467
kennt 2467
Chairman 2466
Speci@@ 2466
OK 2466
projekt 2466
strictly 2465
ites 2465
foot@@ 2465
Wochenende 2465
verkehrs@@ 2465
tigkeiten 2465
entdeckt 2465
5,@@ 2464
tö@@ 2464
Patent@@ 2464
enormen 2464
Russlands 2464
hi 2463
prison 2463
steam 2463
enes 2463
Science 2462
offenbar 2462
sand 2461
wahr 2461
Zahlung 2461
maxim@@ 2460
spi@@ 2460
plastic 2460
9. 2460
werken 2460
ansprechen 2460
Employment 2459
Boot 2459
jedenfalls 2459
sprach@@ 2459
tho@@ 2457
Vereinigte 2457
agents 2456
op 2456
elli@@ 2456
Spielen 2456
Überblick 2456
beinhalten 2456
Beitritts@@ 2456
movie 2455
hü@@ 2455
bing 2454
ano@@ 2454
Blair 2454
PH@@ 2454
Serbien 2454
Basel 2453
Ange@@ 2452
eten 2452
Freund 2452
anzeigen 2452
ums@@ 2451
ALE 2451
AK@@ 2451
HT@@ 2451
Betriebe 2451
CDs 2450
Golf@@ 2450
arbeitete 2450
Übertragung 2450
voc@@ 2449
medicines 2448
produkten 2448
eingebracht 2448
convention 2447
troops 2447
CD@@ 2447
toren 2447
räumen 2447
cy 2446
pace 2446
Amts@@ 2446
accounting 2445
custom@@ 2445
eventuell 2445
Eff@@ 2444
ests 2444
airports 2444
miss 2444
expense 2443
evident 2443
Kas@@ 2443
lü@@ 2443
Detail 2443
Gesetzes@@ 2443
feu@@ 2442
dt 2442
ahn@@ 2442
whereby 2441
pot 2441
Autos 2441
sitzen 2441
wirk@@ 2440
Human@@ 2439
welcoming 2439
IM 2439
Schiff 2439
maschine 2439
schwere 2439
eliminate 2438
strukturen 2438
vorzunehmen 2438
Among 2437
Sierra 2437
operator 2437
Eingang 2437
hierzu 2437
förder@@ 2437
gere 2436
Komp@@ 2436
stammen 2436
Lizenz@@ 2436
Schönheit 2436
mini@@ 2435
selben 2435
lischen 2435
eingeleitet 2435
liked 2434
schemes 2434
Mod@@ 2434
Cent@@ 2434
stammt 2434
Übergang 2434
spe@@ 2433
cos 2433
narrow 2433
bonds 2433
treatments 2433
song 2433
Nizza 2433
02@@ 2432
operated 2432
spite 2432
meter 2432
Ret@@ 2431
Av@@ 2430
Mädchen 2430
ham 2429
stimm@@ 2429
Parkplätze 2429
Volkspartei 2428
Zuge 2428
gek@@ 2428
sisch 2428
vorge@@ 2428
zahlungen 2428
bol@@ 2427
Hom@@ 2427
14. 2427
12.00 2426
typ@@ 2426
ordered 2425
Ram@@ 2425
gesellschaftlichen 2425
verst@@ 2424
Sieg 2424
vorher@@ 2424
Syrien 2424
setz@@ 2423
Fac@@ 2422
esc@@ 2422
musical 2422
parlamentarischen 2422
deli@@ 2421
ín 2421
Revision 2421
Sho@@ 2421
ologischen 2421
Argument 2421
igkeit 2421
observed 2419
Lern@@ 2419
liable 2417
cer 2417
spann@@ 2417
Explorer 2417
financed 2416
stick 2416
codes 2416
Area 2416
airlines 2416
Max 2416
gelangt 2415
urgency 2414
Intergovernmental 2414
Events 2414
XML 2414
get@@ 2413
Siemens 2413
songs 2413
Milch@@ 2413
Would 2412
satisfactory 2412
ji 2412
reise 2411
eigener 2411
gemeinsames 2411
Internal 2410
soil 2410
Truppen 2410
Prozeß 2410
inadequate 2409
uting 2409
Performance 2409
SCH@@ 2409
Politik@@ 2409
Betten 2409
anzubieten 2409
twice 2408
violation 2408
rad 2408
alongside 2407
participating 2407
Zwar 2407
anwenden 2407
Entschlossenheit 2407
begins 2406
Motor 2406
Haut 2406
ziger 2406
gesp@@ 2406
conciliation 2405
komfortable 2405
restored 2404
tracks 2404
Konvent 2404
Verteidigungs@@ 2404
garten 2403
hospitality 2403
Deb@@ 2403
aufbauen 2403
wers 2402
verständlich 2402
derten 2402
linken 2402
Dam@@ 2401
codecision 2400
cli@@ 2400
herr@@ 2400
EM 2400
liger 2400
Ratifizierung 2400
verstehe 2400
amenities 2399
Entspannung 2399
Versicherungs@@ 2399
ungser@@ 2399
vorliegen 2399
eur 2398
retain 2398
vely 2398
regul@@ 2398
ergänzen 2398
acquired 2397
Fel@@ 2397
magazine 2397
Bedien@@ 2397
comple@@ 2396
loans 2396
allo@@ 2396
gas@@ 2396
trat 2396
homo@@ 2395
edited 2395
alisi@@ 2395
hinweg 2395
wave 2394
Trek 2394
abend 2394
Sohn 2394
landwirtschaftlichen 2394
chtet 2393
Cle@@ 2392
els@@ 2392
Fuß@@ 2392
schw@@ 2392
perfekte 2392
collapse 2391
neighbours 2391
graphics 2391
floors 2391
Warcraft 2391
aum 2391
Maschinen@@ 2391
fähigen 2391
passing 2390
Opera 2390
ruhig 2390
Vorstellungen 2390
constitutes 2389
flexi@@ 2389
Gener@@ 2389
aches 2389
lier 2389
digt 2389
Aussage 2389
Sobald 2389
specialists 2388
Sol 2388
surprised 2387
üb@@ 2387
30. 2387
83 2385
s. 2385
Cou@@ 2385
Weil 2385
Tal 2385
GA 2384
GPS 2384
überwachen 2384
gross 2383
ances 2383
bli@@ 2383
Casa 2383
debating 2382
innov@@ 2382
Prozess@@ 2382
Module 2381
Tür 2381
dist@@ 2380
Jerusalem 2380
producer 2380
kin@@ 2380
Ed@@ 2380
Anonymous 2380
Regional@@ 2380
Eli@@ 2379
genuinely 2378
Oper@@ 2378
tter 2378
reagiert 2378
Planeten 2378
SC 2377
alities 2377
verse 2377
viol@@ 2377
engines 2377
nich@@ 2377
Be 2377
Using 2377
spät 2377
inter 2376
federal 2376
diplom@@ 2376
Wissenschaftler 2376
top@@ 2375
Tel 2375
Direkt@@ 2375
Ausbau 2375
reputation 2373
Migration 2373
angel@@ 2372
neun 2372
nicht@@ 2372
zogen 2372
records 2371
formation 2371
chtigen 2371
approaches 2370
dest@@ 2370
Grundlagen 2370
gestatten 2370
repeated 2369
Erreichung 2369
linie 2368
legte 2368
vorgestellt 2367
ansehen 2367
gestiegen 2367
ups 2366
oten 2366
erteilt 2366
actors 2365
teaching 2365
illa 2365
opp@@ 2365
ausgewählt 2365
economically 2364
capabilities 2364
Krieges 2364
Subject 2363
Residence 2363
umgehen 2363
ration@@ 2362
Out 2362
romantic 2362
camp 2362
Gewinn@@ 2362
fewer 2361
progres@@ 2361
Roh@@ 2361
betrieb@@ 2361
Firefox 2360
Lateinamerika 2360
keineswegs 2360
Garantien 2360
sovereign 2359
esti@@ 2359
sicherung 2359
openness 2358
variable 2358
Gas 2358
SK 2358
aktuell 2358
Entwickler 2358
grenzüberschreitenden 2358
disc@@ 2357
DS@@ 2357
Ansprüche 2357
alists 2356
Patten 2356
Dre@@ 2356
geblieben 2356
deserves 2355
chapter 2355
Society 2355
Slovakia 2355
Line 2355
Nero 2355
permit 2354
Datum 2354
Apart 2353
varied 2353
früh@@ 2353
itä@@ 2353
nächster 2353
commit 2352
usage 2352
lla 2352
Fr@@ 2352
Weiterentwicklung 2352
84 2351
Offen@@ 2351
Dänemark 2351
Stock 2350
akt 2350
lieben 2350
quar@@ 2349
inst@@ 2349
dence 2349
student 2349
Drei@@ 2349
Benutzer@@ 2349
timetable 2348
considerations 2348
moreover 2348
teachers 2348
Ticket 2348
wechsel 2348
Mart@@ 2347
seats 2347
Rem@@ 2347
medicine 2347
Log@@ 2347
expand 2345
underground 2345
int@@ 2345
Ashton 2345
italienische 2345
Objek@@ 2345
stärksten 2345
pretty 2344
mouse 2344
bright 2343
sers 2343
sights 2343
Dreh@@ 2343
angehen 2343
popul@@ 2342
desirable 2342
radi@@ 2342
Access 2342
wächst 2342
stuff 2341
ling@@ 2341
Key@@ 2341
tene 2341
erwiesen 2341
Haushalts 2341
relationships 2340
casino 2340
LT 2340
Museen 2340
Abfall@@ 2340
repeatedly 2339
ction 2339
dest 2338
bus@@ 2338
bild@@ 2338
Käufer 2338
Vorrang 2338
inspired 2337
io 2337
Solana 2337
schule 2337
Vier@@ 2337
organise 2336
guaranteeing 2336
girls 2336
FI 2336
Aufzug 2336
selber 2335
Fahrt 2335
Verbrauchern 2335
Entwicklungshilfe 2335
uted 2334
Chem@@ 2334
della 2334
ausgehen 2334
Michel 2333
Mini@@ 2333
licht 2333
arm 2332
yard 2332
outs 2332
visual 2331
manual 2331
Länge 2331
bewußt 2331
verurteilen 2331
ned 2330
repair 2330
condemn 2330
oring 2330
serv@@ 2330
Galileo 2330
Werden 2330
Flughäfen 2330
ökologischen 2330
composition 2329
Nikon 2329
Durchsetzung 2329
ked 2328
Les 2328
Zürich 2328
enzi@@ 2328
sicht@@ 2328
empty 2327
60@@ 2327
Kap@@ 2327
picturesque 2327
geschickt 2327
Immobilien 2327
Verzeichnis 2327
Tieren 2327
geschlossenen 2326
fassung 2326
SY@@ 2325
DR@@ 2325
attend 2324
transfers 2324
Autobahn 2324
digungen 2324
Mängel 2324
pur@@ 2323
6,@@ 2323
Kredi@@ 2323
BC 2322
jahr 2322
manchen 2322
sophisticated 2321
Bir@@ 2321
foundations 2321
journalists 2321
Car 2321
Growth 2321
dauer 2321
etes 2320
Strecke 2320
concentration 2319
Gei@@ 2319
Aspekten 2319
intentions 2318
prec@@ 2318
Gau@@ 2318
Trau@@ 2318
chern 2318
Satz 2318
dlicher 2318
Dokumentation 2318
fizierung 2318
Roman@@ 2317
interne 2317
sozial@@ 2317
feh@@ 2316
Rent@@ 2316
grünen 2316
upgrade 2315
Lat@@ 2315
breit@@ 2315
Lesen 2315
kilometres 2314
bek@@ 2314
Ferienwohnung 2314
Betreuung 2314
External 2313
Palestinians 2313
olive 2313
Scho@@ 2312
Bed 2312
350 2311
will@@ 2311
Pack@@ 2311
wach@@ 2311
Konvention 2311
suggests 2310
underlying 2310
Further 2310
Children 2310
lädt 2310
campaigns 2309
pensions 2309
combines 2309
knapp 2309
regionen 2309
würdigen 2309
fis@@ 2308
tered 2308
developers 2308
stung 2308
4,@@ 2308
definieren 2308
IK@@ 2307
dru@@ 2307
wechseln 2307
Benutzung 2307
vorschlag 2307
29@@ 2306
ehemalige 2306
Sachver@@ 2305
höchst 2305
schau@@ 2304
Gottes 2304
grosse 2304
Traditionen 2304
foremost 2303
eria 2303
Portal 2303
Existenz 2303
Jedoch 2303
Mol@@ 2302
RSS 2302
hinzu@@ 2302
speeches 2301
sho@@ 2301
transpor@@ 2301
altern@@ 2301
ons@@ 2301
NEW 2301
politiken 2301
besucht 2301
Är@@ 2300
herrlichen 2300
hur@@ 2298
Product 2298
Partnership 2298
Schulz 2297
Eng@@ 2297
Text@@ 2297
Spitze 2297
flug@@ 2297
ändert 2297
bles 2296
tun@@ 2295
Imp@@ 2295
prize 2295
ausgegeben 2295
ständen 2294
hinzu 2294
province 2293
elli 2293
Heads 2293
Ali@@ 2293
Bord 2293
arabischen 2293
scheduled 2292
broader 2292
exposed 2292
Behörde 2292
beteiligten 2292
Fassung 2292
sorry 2291
unnecessary 2291
Storage 2291
panoramic 2291
Denken 2291
gerechte 2291
gefährlich 2291
Small 2290
Kin@@ 2290
amending 2289
presidential 2289
tie 2289
Ele@@ 2289
1.5 2289
Holz 2289
baus 2289
ories 2288
exact 2288
Kli@@ 2288
satz@@ 2288
thin 2287
Get@@ 2287
Oberfläche 2287
effizienter 2287
tragic 2286
occupation 2286
entsch@@ 2286
College 2285
EIB 2285
rie@@ 2285
BA 2285
derart 2285
iting 2284
eded 2284
Cab@@ 2283
voran@@ 2283
ownership 2282
electoral 2282
Blo@@ 2282
Analy@@ 2282
Pflanzen 2282
atri@@ 2281
Effekt 2281
beabsichtigt 2281
tragedy 2280
ih@@ 2280
mehrfach 2280
bedroht 2280
completion 2279
Kompetenzen 2279
Pacific 2278
Bol@@ 2278
Top@@ 2278
bedürf@@ 2278
Prüf@@ 2278
Hän@@ 2277
hes 2277
rap@@ 2277
gebildet 2277
zusetzen 2277
gänge 2277
Herkunfts@@ 2277
Richard 2276
usw 2276
stärk@@ 2276
conferences 2275
vin@@ 2275
berechnet 2275
digitale 2275
Nichtraucherzimmer 2275
didn 2274
gesetz 2274
umfassen 2274
sessions 2273
sied@@ 2273
Lohn@@ 2273
Ehre 2273
examined 2272
losing 2272
Three 2272
refer@@ 2272
NICHT 2272
Gran@@ 2271
Wall 2271
Anmeldung 2271
schrift 2271
merk@@ 2271
funktion 2271
Beschränkungen 2271
befürworten 2271
Gem@@ 2270
cool 2270
19th 2270
till 2269
navigation 2269
Gibt 2269
Besuchen 2269
ament 2268
Airlines 2268
hiking 2268
Engineering 2268
Suites 2267
ultimate 2266
voters 2266
tender 2266
80@@ 2266
lle 2266
Louis 2266
licherweise 2266
Slowakei 2266
begun 2265
gal@@ 2265
erend 2265
odi@@ 2264
Klarheit 2264
Allah 2264
urlaub 2264
konsequent 2264
Niederlande 2264
Protokolls 2264
Wechsel@@ 2264
thorough 2263
string 2263
ading 2263
è 2263
branche 2263
Bosnia 2262
Morocco 2262
Europ@@ 2262
justi@@ 2261
fü@@ 2261
examination 2260
withdraw 2260
agne 2260
amazing 2260
custom 2260
Porto 2260
paket 2260
bett 2260
signing 2259
Ay@@ 2259
Steigerung 2259
Greens 2258
Account 2258
Department 2258
entfernen 2258
versteht 2258
nehme 2258
remarkable 2257
79 2257
Katalog 2257
beantwortet 2257
Versprechen 2257
hidden 2256
ean 2256
Ty@@ 2256
errichtet 2256
compete 2255
dynam@@ 2255
Governance 2255
Typ 2255
sozi@@ 2255
teilung 2255
beibehalten 2255
Have 2254
opens 2254
netz 2254
volles 2254
horse 2253
este 2253
öffentlicher 2253
tivity 2252
pilot 2252
Terms 2252
tiere 2252
richtung 2252
wirklichen 2252
kno@@ 2251
Span@@ 2251
ologi@@ 2251
ando 2251
grund 2251
desto 2251
alistischen 2251
generell 2250
gegebenenfalls 2250
aming 2249
Cer@@ 2249
Golden 2249
Schn@@ 2249
nungs@@ 2249
geliefert 2249
respects 2248
ethical 2248
dual 2248
ME 2248
ökonomischen 2248
nutzt 2248
anzuwenden 2248
GUE 2247
keys 2247
stores 2247
Meg@@ 2247
Vordergrund 2247
Statistiken 2247
importantly 2246
communicate 2246
Direc@@ 2246
GR@@ 2246
klasse 2246
mitglieder 2246
shortly 2245
riding 2245
CEO 2245
exc@@ 2245
ey@@ 2244
Vel@@ 2244
ALDE 2244
Album 2244
Einer 2244
falling 2243
Schicksal 2243
istic 2242
vic@@ 2242
fuer 2242
Häuser 2242
UC@@ 2241
wendung 2241
tätigen 2241
Wahrung 2240
herzustellen 2240
dramatic 2239
superior 2239
erstens 2239
speciali@@ 2238
appointment 2237
ül@@ 2237
Academy 2237
ación 2237
Frühstücksbuffet 2237
südlichen 2237
sensi@@ 2236
checked 2235
Rock 2235
ologischer 2235
veröffentlichen 2235
erteilen 2235
hence 2234
recording 2234
Professional 2234
gerufen 2234
grossen 2234
erheblichen 2234
Wednesday 2233
clarity 2233
acted 2233
Ga@@ 2233
quellen 2233
Lernen 2233
Universitäten 2233
prospect 2232
apparent 2232
false 2232
bergen 2232
Archi@@ 2232
Aufhebung 2232
convenience 2231
jointly 2231
lien 2231
behauptet 2231
initially 2230
Ul@@ 2230
amp 2230
Zweiten 2230
Nachdruck 2230
alternatives 2229
Original 2229
schwedischen 2229
klein 2229
Häfen 2229
ship@@ 2228
but@@ 2228
gres@@ 2228
Speisen 2228
vertritt 2228
regionaler 2228
kn@@ 2227
ital 2227
Bou@@ 2227
Chancengleichheit 2227
wachsende 2227
uter 2226
mali@@ 2226
Kab@@ 2226
Nokia 2226
Offenheit 2226
mäßig 2226
Auflösung 2226
oppose 2225
Wald@@ 2225
tak@@ 2225
Flo@@ 2225
genauer 2225
minor 2224
resul@@ 2224
PE 2224
vollem 2224
Schei@@ 2223
ht 2223
Ski 2223
Dynamik 2223
vorsieht 2223
Anim@@ 2222
Ok@@ 2222
schem 2221
Rückgang 2221
Verheugen 2220
wander@@ 2220
URL 2220
Lebensmittelsicherheit 2220
Erfolge 2220
Vorgehensweise 2220
permission 2219
mem@@ 2219
Search 2219
с@@ 2219
betriebe 2219
jährlichen 2219
sel 2218
Fang@@ 2218
erheben 2218
Tem@@ 2217
gesetzten 2217
Bereits 2217
auswirken 2217
partial 2216
ared 2216
Go 2216
Export 2216
Glas@@ 2216
langem 2216
Nation 2215
textile 2215
lte 2215
dene 2215
greift 2215
loading 2214
zweiter 2214
boats 2213
Montenegro 2213
visu@@ 2213
Stock@@ 2213
25. 2213
strukturi@@ 2213
meal 2212
manu@@ 2212
Fed 2212
betrieb 2212
ecken 2212
Georgien 2212
Representative 2211
ign@@ 2211
omp@@ 2211
Wikicars 2211
Kennzeichnung 2211
hohes 2211
Fortsetzung 2211
feet 2210
doubts 2210
Sig@@ 2210
Musi@@ 2210
Berge 2210
Ministerpräsident 2210
Zimmerbeschreibung 2210
Rus@@ 2209
pap@@ 2209
angenehmen 2209
endet 2209
zahlt 2209
Soldaten 2209
Ven@@ 2208
fang 2208
Genau 2208
Sowohl 2208
describe 2207
tert 2207
logic 2206
teen 2206
native 2206
Safe 2206
hilfreich 2206
Philosophie 2206
erhoben 2206
Nachbar@@ 2206
dur@@ 2205
zäh@@ 2205
täten 2205
references 2204
broken 2204
Haiti 2204
gewidmet 2204
Vorsch@@ 2204
Kommissionspräsident 2204
spo@@ 2203
100@@ 2203
в@@ 2203
и@@ 2203
Fluss 2203
recall 2202
Zeitplan 2202
cro@@ 2201
kräf@@ 2200
ände 2200
spezialisiert 2200
Zielsetzungen 2200
conditioned 2199
IX 2198
Liberalen 2198
anerkennen 2198
Netze 2198
observe 2197
smooth 2197
rad@@ 2197
tran@@ 2196
transitional 2196
complaints 2196
Pic@@ 2196
klassi@@ 2196
beispiel@@ 2196
Problematik 2196
respektieren 2196
overlooking 2195
Sonntag 2195
läu@@ 2195
affecting 2194
sely 2194
Kaffee 2194
Strand@@ 2194
setzte 2194
fahrzeuge 2194
stattgefunden 2194
Wichtigkeit 2194
bug 2193
concert 2193
aktiviert 2193
gon 2192
Desktop 2192
strasse 2192
mung 2192
sake 2191
Eines 2191
trags@@ 2191
widmen 2191
benutz@@ 2191
Anmerkungen 2191
program@@ 2190
SP 2190
zugeben 2190
fehlen 2190
Clinton 2189
Himmel 2189
fut@@ 2188
Pension 2188
chron@@ 2188
Minderheit 2188
Gegner 2188
schutzes 2188
Betracht 2188
Dresden 2187
VIP 2187
günsti@@ 2187
strike 2186
Viel@@ 2186
typischen 2186
passen 2186
dend 2185
Valencia 2185
ausländischen 2185
verwendeten 2185
var 2184
ück@@ 2184
schm@@ 2184
professionelle 2184
niedrigen 2184
angenommenen 2184
solved 2183
informal 2183
ROM 2183
Mich@@ 2183
mechanismen 2183
Unterkünfte 2183
constructed 2182
größeres 2182
cope 2181
größter 2181
schriftliche 2181
viable 2180
Fischler 2180
intensiv 2180
tering 2179
enjoys 2179
fortsetzen 2179
Amerikas 2179
110 2178
deficits 2178
Hauptbahnhof 2178
kra@@ 2177
Gebühren 2177
Geheim@@ 2176
Ausrichtung 2176
erarbeitet 2176
managers 2175
vil@@ 2175
array 2175
freier 2175
üsse 2175
Weltwirtschaft 2175
populations 2174
akes 2174
Ky@@ 2174
og@@ 2174
prin@@ 2174
Rech@@ 2174
unmittelbarer 2174
Modul 2174
credible 2173
CA 2173
folder 2173
schung 2173
Fläche 2173
dieren 2173
Berich@@ 2173
180 2172
eig@@ 2172
begegnen 2172
violent 2171
afford 2171
representing 2171
collabor@@ 2171
Assi@@ 2171
Jesus 2171
play@@ 2171
Erst@@ 2171
tionally 2170
Real@@ 2170
Einen 2170
verbreitet 2170
mixed 2169
clock 2169
fic@@ 2169
nungen 2169
Regel@@ 2169
beweisen 2169
miß@@ 2169
chemische 2169
Renn@@ 2168
uncertainty 2167
fro@@ 2167
tain@@ 2167
clicking 2167
specialized 2167
stressed 2166
interven@@ 2166
130 2166
beer 2166
Export@@ 2166
Rechnungs@@ 2166
Können 2166
ähnlichen 2166
ici@@ 2165
ingredients 2165
tual 2165
erforderliche 2165
Kommentare 2165
diver@@ 2164
revised 2164
NE@@ 2164
Rö@@ 2164
verabschieden 2164
Stell@@ 2163
tatsächlichen 2163
endgültige 2163
refused 2162
â@@ 2162
LAN 2162
31. 2162
falsche 2162
turen 2162
Aussagen 2162
klären 2162
Fremdenverkehr 2162
PAR@@ 2161
colors 2161
bemerk@@ 2161
innovativen 2161
uneingeschränkt 2160
plat@@ 2159
russische 2159
planen 2159
Zunahme 2159
hole 2158
A. 2158
dateien 2158
Bürokratie 2158
granting 2157
accordingly 2157
blind 2157
Make 2157
V. 2157
Frauen@@ 2157
förderung 2157
stories 2156
Level 2156
ald 2156
Verordnungen 2156
solch 2156
Anreize 2156
ea 2155
absol@@ 2155
kohär@@ 2155
shor@@ 2154
Bestätigung 2154
argue 2153
Copyright 2153
Pir@@ 2153
afraid 2152
.net 2152
jüngste 2152
hinzugefügt 2152
deadline 2151
gesucht 2151
deutliche 2151
anzupassen 2151
bi 2150
Bücher 2150
erweisen 2150
declare 2149
alise 2149
preferred 2149
secondary 2149
Oli@@ 2149
tagen 2149
Leg@@ 2148
Erarbeitung 2148
Moscow 2147
C. 2147
Operation 2147
sierungs@@ 2147
Ursache 2147
Read 2146
dance 2146
überrascht 2146
Besitz 2146
judge 2145
seemed 2145
DER 2145
Werkzeug 2145
formuliert 2145
Verfahrens 2145
drängen 2145
ession 2144
Together 2144
Ran@@ 2144
Betrieb@@ 2144
Wettbewerbs 2144
coastal 2143
alter@@ 2143
offiziell 2143
Alternativen 2143
Ruf 2142
deaths 2141
vocational 2141
rational 2141
Uns 2141
Forsch@@ 2141
stunning 2140
Räume 2140
fügen 2140
Abbau 2140
assurance 2139
greenhouse 2139
unds 2139
Schu@@ 2139
terrible 2138
adjustment 2138
Individu@@ 2138
hundert 2138
Ablauf 2138
Tampere 2137
Transfer 2137
Risiko@@ 2137
Nordic 2136
maybe 2136
destroy 2136
Dach@@ 2136
Erwachsene 2136
subsequently 2135
Section 2135
Spezialitäten 2135
steten 2135
Ausgrenzung 2135
fairen 2135
könne 2135
squ@@ 2134
Referendum 2134
2nd 2134
uss@@ 2134
honest 2133
recession 2133
DS 2133
vertrau@@ 2133
believed 2132
arrest 2132
mus@@ 2132
roman@@ 2132
gewicht 2132
Klimawandels 2132
taxpayers 2131
absurd 2131
Super 2131
oldest 2131
thri@@ 2130
comparable 2130
Edinburgh 2130
davor 2130
governmental 2129
eht 2129
richtungen 2129
denden 2129
innere 2129
Nehmen 2129
bewegt 2129
gemeinsamer 2129
berger 2128
Appartement 2128
verursachen 2128
Orten 2128
künst@@ 2128
Presidents 2127
Tak@@ 2127
Cur@@ 2127
dei 2127
üblichen 2127
Terroristen 2127
lement 2126
standes 2126
Saison 2126
viewed 2125
tribute 2125
QU@@ 2125
ail 2125
gate 2125
bruch 2125
ökonomische 2125
bewertet 2125
Gut@@ 2124
kti@@ 2124
integrierte 2124
spanische 2124
gast@@ 2123
Sun 2123
nahme@@ 2123
hochwertigen 2123
Bildern 2123
angekündigt 2123
Verfahrens@@ 2123
Verabschiedung 2123
mechanismus 2123
rank 2122
Kürze 2122
Left 2121
ignore 2121
Zivil@@ 2121
gehei@@ 2121
iges 2121
existieren 2121
roof 2120
ade@@ 2120
pp 2120
fähi@@ 2120
Objekte 2120
Drogen 2120
Nichtraucherzonen 2120
temp@@ 2119
noon 2119
Institu@@ 2119
wick@@ 2119
coal 2119
Afri@@ 2119
Côte 2119
Patri@@ 2119
fing 2119
instantly 2119
Arena 2119
Menschheit 2119
dieselben 2119
Landwirtschafts@@ 2119
wirft 2119
nisses 2119
vertraut 2119
Betrifft 2119
Raums 2119
Taliban 2118
Ausnahmen 2118
healthcare 2117
Bul@@ 2117
bathrooms 2117
ization 2117
bü@@ 2117
Entfernung 2117
debated 2116
moder@@ 2116
negotiated 2116
abgesehen 2116
west@@ 2115
Bosnien 2115
Bevor 2115
geschäft 2115
Gerichts@@ 2115
geringen 2115
segment 2114
Glob@@ 2114
Speicher@@ 2114
zustande 2114
Ausbeutung 2114
commerce 2113
deserve 2113
integrity 2113
fan 2113
Travel 2113
berühmte 2113
erwähnten 2113
whatsoever 2112
dering 2112
loaded 2112
fifth 2112
univers@@ 2112
befürwortet 2112
unch 2111
Fahrer 2111
wind@@ 2110
Nat@@ 2110
enting 2109
surveillance 2109
Commerce 2109
zel@@ 2109
Komm@@ 2109
Deutschlands 2109
Ref 2109
spectrum 2108
euer 2108
genau@@ 2108
steller 2108
gh 2107
ji@@ 2107
Glei@@ 2107
reibungs@@ 2107
Vertrieb@@ 2107
Taten 2107
übt 2107
ential 2106
calm 2106
electrical 2106
ized 2106
Hände 2106
zugestimmt 2106
chem@@ 2105
dial 2105
elektronische 2105
ills 2104
glob@@ 2104
facto 2104
Times 2104
A.@@ 2104
Wohnzimmer 2104
Steuer 2104
sichert 2104
delays 2103
mä@@ 2103
Filter 2103
gie@@ 2103
besonderes 2103
prop@@ 2102
expenses 2102
Mass@@ 2102
komplexen 2102
Euch 2102
hafter 2102
östlichen 2102
Formulierung 2102
Produktivität 2102
certainty 2101
reli@@ 2101
ungst@@ 2101
Il@@ 2100
progressive 2100
cot@@ 2100
Kau@@ 2100
Person@@ 2100
chi 2100
indoor 2100
Green@@ 2099
LCD 2099
bearbeiten 2099
geehrte 2099
trained 2098
ratified 2098
Bla@@ 2097
Annehmlichkeiten 2097
Third 2096
ples 2096
Lü@@ 2096
Florence 2096
Haushalte 2096
Kuba 2096
gemessen 2096
gegenseitigen 2096
jurisdiction 2095
Riviera 2095
eindeutige 2095
prinzip 2095
Bürgerbeauftragten 2095
promoted 2094
stag 2094
fähige 2094
berichtet 2094
vorliegt 2094
posed 2093
civilian 2093
Jewish 2093
nobody 2093
dent 2093
removal 2093
expanded 2093
Il 2093
Series 2093
kun@@ 2093
Hour 2093
devoted 2092
pil@@ 2092
newsletter 2092
Mail@@ 2092
Wiederherstellung 2092
durchzusetzen 2092
präzise 2092
listening 2091
ura 2091
stätten 2091
erarbeiten 2091
pä@@ 2090
cr@@ 2090
Defence 2090
ao 2090
Big 2090
Mini 2090
erkennt 2090
kostenlose 2089
venti@@ 2088
translated 2088
Haar@@ 2088
dau@@ 2088
tat 2088
garage 2088
PM 2088
fangen 2088
Einzelheiten 2088
lied 2087
1988 2087
imperi@@ 2087
carte 2087
7,@@ 2087
stei@@ 2087
kriterien 2087
renewed 2086
Wild@@ 2086
Rechnungshof 2086
relief 2085
male 2085
inclusive 2085
delete 2085
Kla@@ 2085
basically 2084
undertake 2084
elec@@ 2084
Wind 2084
Esp@@ 2084
grenze 2084
thy 2083
simultaneously 2083
forgotten 2083
Premium 2083
hervorragend 2083
derselben 2083
Otherwise 2082
reck@@ 2082
virus 2082
smart 2082
maximal 2082
verwiesen 2082
ais 2081
ry@@ 2081
Ori@@ 2081
tags 2081
Umstände 2081
bekämpfung 2081
certified 2080
AP 2080
UL@@ 2080
umso 2080
vertrauen 2080
begründet 2080
Übernahme 2079
unterschiedlicher 2079
siv@@ 2078
Eing@@ 2078
Finanzen 2078
siven 2077
Licht@@ 2077
übermitteln 2077
refuse 2076
Rural 2076
ank 2076
vent 2076
Pau@@ 2076
Cir@@ 2076
Med@@ 2076
Schuld 2076
Rechner 2076
verfol@@ 2076
streben 2076
Net 2075
Bureau 2075
ziel 2075
steuer 2075
technisch 2075
religiösen 2075
beef 2074
auff@@ 2074
Marco 2074
ressourcen 2074
Verfolgung 2074
ose 2073
principal 2073
tory 2073
orientation 2073
bought 2073
Visa 2073
Wür@@ 2073
klar@@ 2073
Schüler 2073
Funktionieren 2073
Sin@@ 2072
Heimat 2072
löschen 2072
answered 2071
Ms 2071
Bewusstsein 2071
änge 2071
bewegung 2071
fungen 2071
Einnahmen 2071
justify 2070
theatre 2070
Work@@ 2070
Einsatz@@ 2070
engen 2070
erleichtert 2070
ruling 2069
baby 2069
ux 2069
abilities 2069
Bestellungen 2069
soul 2068
autumn 2068
bay 2068
erstes 2068
leistet 2068
Strände 2068
escape 2067
preparations 2067
certification 2067
moments 2067
regimes 2067
suited 2067
technique 2067
Gruppen@@ 2067
Gemeinden 2067
Menschenrechtsverletzungen 2067
AF@@ 2066
EP@@ 2066
Kernel 2066
dieselbe 2066
earn 2065
Zwischen 2065
bedauerlich 2065
suspended 2064
Fla@@ 2064
Million 2064
expressly 2063
focusing 2063
territories 2063
NRO 2063
Seg@@ 2062
inspection 2062
Millennium 2062
dring@@ 2062
Außenminister 2062
Samstag 2061
günstige 2061
kürz@@ 2061
Ereignis 2061
symboli@@ 2060
sleep 2060
Leipzig 2060
Waren@@ 2060
Fleisch 2060
Bevölkerungs@@ 2060
indicators 2059
rot@@ 2059
ati 2059
Café 2059
Projek@@ 2059
Karl 2058
audience 2058
marking 2058
Youth 2058
Rezession 2058
adventure 2057
isierung 2057
nötigen 2057
Binnen@@ 2057
Fischereipolitik 2057
Sau@@ 2056
Innenstadt 2056
turns 2055
zurzeit 2055
lor@@ 2054
iron 2054
frequency 2054
Main@@ 2054
Wen@@ 2054
Sekunden 2054
lüsse 2054
arrangement 2053
beneficial 2053
ario 2053
Adri@@ 2053
Wohnungen 2053
rufe 2053
assigned 2052
separ@@ 2052
cc@@ 2052
layout 2052
Bauern 2052
bedro@@ 2051
By@@ 2051
Tit@@ 2051
Erlebnis 2051
umgehend 2051
Südafrika 2051
gehe 2051
20th 2050
PD@@ 2050
Spre@@ 2050
Werkzeuge 2050
auswählen 2050
explicitly 2049
gam@@ 2049
por 2049
günstigen 2049
thanking 2048
employers 2048
oth 2048
mur@@ 2048
bureaucracy 2047
adult 2047
paths 2047
Logik 2047
emerged 2046
Gam@@ 2046
Zucker@@ 2046
Updates 2046
heits@@ 2046
komple@@ 2046
Händen 2046
Abgeordneter 2045
itation 2044
wise 2044
doub@@ 2043
Wit@@ 2043
Hum@@ 2043
KOM 2043
dasselbe 2043
publish 2042
Rou@@ 2042
cancellation 2042
greif@@ 2042
Verkaufs@@ 2042
Recht@@ 2042
ärmsten 2042
nationals 2041
iss@@ 2041
denti@@ 2041
agen 2041
zip 2041
Filme 2041
komplexe 2041
enne 2040
discount 2040
terin 2040
Danach 2040
Menschenrechten 2040
negotiate 2039
power@@ 2039
posts 2039
researchers 2039
Hussein 2039
Parlament@@ 2039
Palette 2039
transaction 2038
Prof. 2038
Aktu@@ 2038
erlassen 2038
Zerstörung 2038
anzuzeigen 2038
Past@@ 2037
zun@@ 2037
flexibel 2037
professionellen 2037
lern 2036
medizinische 2036
alem 2036
Miß@@ 2036
staatlicher 2036
studied 2035
observation 2035
Monti 2035
height 2035
wooden 2035
Intervention 2035
gerechtfertigt 2035
ausländische 2035
Ausrüstung 2035
Diesen 2035
opt 2034
Ministry 2034
umzu@@ 2034
israelischen 2034
optional 2033
sizes 2033
ê@@ 2033
ć 2033
unterbrochen 2033
vermutlich 2033
Studi@@ 2033
stoßen 2033
hen@@ 2032
distinction 2032
GP 2032
Abteilung 2032
Bestell@@ 2032
vermittelt 2032
normen 2032
allocation 2031
Trop@@ 2031
HO@@ 2031
aktualisiert 2031
beinahe 2031
Kopf@@ 2031
Lieferanten 2031
Up@@ 2030
einführen 2030
steuer@@ 2030
admit 2029
Democratic 2029
Tat@@ 2029
geeigneten 2029
bezeichnen 2029
dep@@ 2028
aw@@ 2028
boasts 2028
beach@@ 2028
demokratisch 2028
bigger 2027
ceiling 2027
mand@@ 2027
gingen 2027
ony 2026
cement 2026
Ner@@ 2026
technischer 2026
spüren 2026
Kenntnisse 2026
zunehmende 2026
Г 2026
Sav@@ 2025
Chief 2025
Event 2025
elegante 2025
Begründung 2025
fell 2024
Moder@@ 2024
logo 2024
zent@@ 2024
Appartements 2024
Betreiber 2024
Strom 2024
Festplatte 2024
Alters@@ 2024
geringer 2024
amt 2023
alled 2023
necessity 2023
SI 2023
iPod 2023
stands@@ 2023
arbeiteten 2023
Finnish 2022
authors 2022
behavior 2022
worrying 2021
residential 2021
Gewinne 2021
closing 2020
å@@ 2020
stil@@ 2020
Insgesamt 2020
dienstleistungen 2020
splendid 2019
Richter 2019
soldiers 2019
mächti@@ 2019
innen@@ 2019
sischer 2019
Anträge 2019
telecommunications 2018
onic 2018
tes@@ 2018
ruppe 2018
NGL 2017
harm 2017
intervene 2017
angle 2017
kurse 2017
gkeits@@ 2017
inneren 2017
verschaffen 2017
linien 2017
lit@@ 2016
vi 2016
treiben 2016
ätze 2016
beruhen 2016
erwerben 2016
insufficient 2015
reflection 2015
meals 2015
vermieden 2015
cket 2014
Konzer@@ 2014
hielt 2014
Urlaubs@@ 2014
Handlungen 2014
Energiequellen 2014
num@@ 2013
individu@@ 2013
zeigte 2013
planung 2013
verstärkte 2013
dargelegt 2013
rated 2012
Schutzes 2011
sicherer 2011
sagten 2011
ENT 2010
bo 2010
industriellen 2010
führungs@@ 2010
endgültigen 2010
legitim@@ 2009
focuses 2009
Prag 2009
öse 2009
Beamten 2009
änderungen 2009
papers 2008
Zuverlässigkeit 2008
Erwägung 2008
beschleunigen 2008
Jan 2007
modify 2007
trouble 2007
ille 2007
hills 2007
Inc 2007
gste 2007
Marokko 2007
ablehnen 2007
prevented 2006
classical 2006
Derzeit 2006
Foto@@ 2006
Internetzugang 2006
tension 2005
Israelis 2005
chemicals 2005
poker 2005
Australien 2005
quest 2004
wars 2003
renoviert 2003
Lehrer 2003
Spannungen 2003
dien@@ 2002
500@@ 2002
fragt 2002
Großen 2002
Spaziergang 2002
evi@@ 2001
enjoying 2001
Sports 2001
Laden 2001
einsch@@ 2001
lebenden 2001
Brok 2000
desktop 2000
gehabt 2000
achievements 1999
Bed@@ 1999
manufactured 1999
österreichischen 1999
Bezeichnung 1999
humanity 1998
Lebanon 1998
Einwanderer 1998
fails 1997
freight 1997
früh 1997
Eröffnung 1997
demonstrates 1996
hang 1996
installations 1995
accuracy 1995
erleb@@ 1995
Modus 1995
trags 1995
einstimmig 1995
neutral 1994
charm 1994
emen 1993
alistische 1993
Meinungen 1993
Santer 1992
duc@@ 1992
klein@@ 1992
eröffnen 1992
signals 1991
VI 1991
din@@ 1991
Gesicht 1991
proc@@ 1990
Ly@@ 1990
zugelassen 1990
stones 1989
Trend 1989
Belastung 1989
Steuerzahler 1989
well@@ 1988
ght@@ 1988
Atlan@@ 1988
Add 1988
esse 1988
measurement 1988
brut@@ 1988
teln 1988
glaubt 1988
Osteuropa 1988
Mü@@ 1988
Mutter@@ 1988
Privatsphäre 1988
binden 1988
terungen 1988
eth 1987
kunden 1987
kleinere 1987
Friedens 1987
gift 1986
potentially 1986
Monte 1986
Lager 1986
eintreten 1986
einiges 1986
Beschluß 1986
undermine 1985
cian 1985
Beratungen 1985
kritischen 1985
Immer 1985
plug 1984
Laut 1984
postal 1983
ktion@@ 1983
zeugen 1983
mistakes 1982
citizenship 1982
threatened 1982
esta 1982
cookies 1982
Nachmittag 1982
organisierten 1982
Tun@@ 1981
Seele 1981
characteristic 1980
dimensions 1980
buying 1980
lock@@ 1980
2014 1980
Gewinn 1980
finds 1979
FC 1979
eding 1978
survey 1978
Play@@ 1978
competences 1977
stopped 1977
conf@@ 1977
Form@@ 1977
zahlung 1977
umfangreichen 1977
Herkunft 1977
gehörigen 1977
schwieriger 1977
ep 1976
Palma 1976
G20 1976
Venedig 1976
ehrlich 1976
unanimously 1975
tigh@@ 1975
unt 1975
supplementary 1975
cab@@ 1975
human@@ 1975
quantity 1975
wand 1974
DP 1974
Mono@@ 1974
Corporation 1974
Hafen@@ 1974
Reinigung 1974
Fakten 1974
beruflichen 1974
Drittstaaten 1974
identi@@ 1973
zentraler 1973
ô@@ 1972
consistently 1971
feder@@ 1971
unions 1971
wages 1971
Samsung 1971
integrieren 1971
affordable 1970
atischen 1970
anpassen 1970
Ech@@ 1969
fru@@ 1969
continuously 1969
spot@@ 1969
Mir@@ 1969
sender 1969
Zusammensetzung 1969
Massage 1968
Weiß@@ 1968
terrorists 1967
protest 1967
judgment 1967
druck@@ 1967
möglichkeit 1967
eingeräumt 1967
derjenigen 1967
handels@@ 1966
geringe 1966
Weltkrieg 1966
tonnes 1965
fam@@ 1965
Len@@ 1965
isten 1965
alisierungs@@ 1965
abgeben 1965
erlangen 1965
mechanical 1964
defining 1964
Iranian 1964
Dum@@ 1964
blicken 1964
conversion 1963
wat@@ 1963
Lithuania 1963
Micro@@ 1963
gelingen 1963
pressed 1962
anten@@ 1962
24. 1962
Mittwoch 1962
eigentliche 1962
coordinate 1961
withdrawal 1961
Val 1961
flächen 1961
ernsthafte 1961
Beijing 1960
designer 1960
jek@@ 1960
Krisen 1960
ligh@@ 1959
atten@@ 1959
Yugoslavia 1959
chairs 1959
Doppelzimmer 1959
aufnahme 1959
zugute 1959
Olympic 1958
Bin@@ 1958
ausreichende 1958
ratio 1957
lively 1957
Ale@@ 1957
angenehm 1957
Betrug 1957
Grundsätzen 1957
dien 1956
alisten 1956
Summe 1956
verzichten 1956
privileged 1955
Burg 1955
agrees 1954
contributing 1954
applicant 1954
Techn@@ 1954
calendar 1954
Kit@@ 1954
Unsicherheit 1954
einzig 1954
catalogue 1953
procurement 1953
institute 1953
Several 1953
residents 1953
sample 1953
Ltd 1953
Sarkozy 1953
Felder 1953
timely 1952
tone 1952
ample 1952
neighbourhood 1952
bahn@@ 1952
steh@@ 1952
gestartet 1952
retten 1952
Verlängerung 1952
schenken 1952
überein@@ 1952
erie 1951
ř@@ 1951
zeichneten 1951
stützen 1951
mittlere 1951
Verteidigungspolitik 1951
IA@@ 1950
angebote 1950
Versuche 1950
Beurteilung 1950
belongs 1948
eries 1948
Kein 1948
keiten 1948
kredi@@ 1948
notified 1947
Publi@@ 1947
KG 1947
Drei 1947
Luxus 1947
geber 1947
een 1946
ão 1946
accessories 1946
Angel@@ 1946
Deposit 1946
Hof 1946
Stahl@@ 1946
aufgestellt 1946
rechtlich 1946
Pon@@ 1945
disp@@ 1945
C4 1945
GO 1945
eckt 1945
blame 1944
pt 1944
Argentina 1944
Feststellung 1944
evaluate 1943
Last@@ 1943
shore 1943
branch 1943
Bak@@ 1943
gelernt 1943
Heimat@@ 1943
Stufe 1943
kombiniert 1943
metro 1942
altung 1942
schlechte 1942
Übersicht 1942
genießt 1942
Similarly 1941
History 1941
Water 1941
Pflichten 1941
gehandelt 1941
Inkrafttreten 1941
pain 1940
rats 1940
sw@@ 1940
Program 1940
Brücke 1940
bereit@@ 1940
Autor 1940
conservation 1939
cancelled 1939
Schau@@ 1939
zwölf 1939
vary 1938
05@@ 1938
ares 1938
HP 1938
zin@@ 1938
seu@@ 1938
Zurich 1938
becken 1938
seln 1938
egel@@ 1938
patents 1937
xe 1937
LED 1937
beschließen 1937
Sri 1936
cen@@ 1936
UM@@ 1936
bird 1935
Prize 1935
Over@@ 1935
luss@@ 1935
fuhr 1935
Todes@@ 1935
Verfasser 1935
identification 1934
holder 1934
Verts 1934
IBM 1934
Edel@@ 1934
faire 1933
gebung 1933
relevanten 1933
züge 1933
Rennen 1933
zwischen@@ 1933
heit@@ 1933
Einschätzung 1933
eve 1932
vent@@ 1932
fascinating 1932
Rußland 1932
mandatory 1931
imported 1931
Alps 1931
Sab@@ 1931
billi@@ 1931
Transpor@@ 1931
Arbeitsgruppe 1931
abgegeben 1931
conventions 1930
Ausübung 1930
Rassismus 1930
methode 1929
woh@@ 1929
inakzeptabel 1929
tia 1928
imposing 1928
Nation@@ 1928
passieren 1928
Bewältigung 1928
authorised 1927
occupied 1927
elderly 1927
Rit@@ 1927
Erzeugung 1927
experiencing 1926
1986 1926
contrac@@ 1926
Rahmenbedingungen 1926
getrennt 1926
entstand 1926
Jugendliche 1926
Besteuerung 1926
transit 1925
breach 1925
vali@@ 1925
Press 1925
Km 1925
Designer 1925
gebe 1925
missed 1924
stern 1924
returns 1924
eled 1924
kämp@@ 1924
beziehungen 1924
Weiterhin 1924
treaties 1923
Strategi@@ 1923
SL@@ 1923
whenever 1921
patri@@ 1921
Gui@@ 1921
notably 1920
arranged 1920
Dur@@ 1920
Düsseldorf 1920
automotive 1920
ino@@ 1920
iniert 1920
basieren 1920
vorgehen 1920
pursued 1919
medieval 1919
adap@@ 1919
Sound@@ 1919
Team@@ 1919
Republi@@ 1918
ollen 1918
SDL 1918
hört 1918
wahre 1918
Wünschen 1918
unemployed 1917
rela@@ 1917
emerge 1917
chat 1917
Hy@@ 1917
CO 1917
gebühren 1917
ursprüngliche 1917
jeglicher 1917
publishing 1916
alls 1916
Darfur 1916
baut 1916
Verletzungen 1916
stil 1915
Fisch 1915
gefähr@@ 1915
demokratischer 1915
anforderungen 1915
realen 1915
innovations 1914
FR@@ 1914
arbitrary 1914
Language 1914
Hör@@ 1914
Automobil@@ 1914
Tauch@@ 1914
respektiert 1914
Grünbuch 1914
unstable 1913
eda 1913
vorschläge 1913
organisierte 1913
qualifications 1912
Cross 1912
trans 1912
sing@@ 1912
Prop@@ 1912
tro 1912
Für@@ 1912
Sek@@ 1912
Phänomen 1912
ierungs@@ 1912
tausend 1912
nachzu@@ 1912
globaler 1912
react 1911
systematic 1911
2.5 1911
gab@@ 1911
verkehr@@ 1911
Vertretung 1911
bilateralen 1911
bis@@ 1910
ehe 1910
Ausschüsse 1910
beizutragen 1910
einst 1910
alli@@ 1909
zones 1909
os@@ 1909
sogenannte 1909
behandlung 1909
Inhalten 1909
erneuerbaren 1909
Until 1908
ool 1908
Run@@ 1908
Fans 1908
22. 1908
insofern 1908
wheel 1907
Hab@@ 1907
weit@@ 1907
Keine 1907
Besitz@@ 1907
austausch 1907
Erweiterungs@@ 1907
mon 1906
emission 1906
tum@@ 1906
Tei@@ 1906
stattdessen 1906
heutzutage 1906
küh@@ 1906
Regionalpolitik 1906
José 1905
Lun@@ 1905
Publikum 1905
Anhörung 1905
machinery 1904
aly@@ 1904
spra@@ 1903
Industrial 1903
Captain 1903
seri@@ 1903
kanische 1903
borne 1902
nur@@ 1902
purchased 1902
fuels 1901
pair 1901
fikation 1901
rahmen 1901
arts 1900
centers 1900
irgend@@ 1900
winner 1899
knew 1899
equity 1899
Wett@@ 1899
orientierte 1899
kostenlosen 1899
Beschwerden 1899
bureaucratic 1898
Jacques 1898
scho@@ 1898
CR@@ 1898
9001 1898
dahin 1898
dollars 1897
farms 1897
visits 1897
preserved 1897
würdig 1897
gefährden 1897
investiert 1897
biodiversity 1896
robust 1896
potenti@@ 1896
zwanzig 1896
berufen 1896
zentrali@@ 1896
virtu@@ 1895
abo@@ 1895
aden@@ 1895
Original@@ 1895
Erhalt 1895
vereint 1895
empfängt 1895
Socialists 1894
throw 1894
itali@@ 1894
Kurz 1894
erkunden 1894
placing 1893
Cologne 1893
Bom@@ 1893
convert 1892
Sac@@ 1892
mien 1892
Zw@@ 1892
egen 1892
reifen 1892
Verluste 1892
verpflichten 1892
Parlaments@@ 1892
Übereinkommens 1892
parameter 1891
archive 1891
Einschränkungen 1891
Ander@@ 1890
zo 1890
disputes 1889
fications 1889
contractual 1889
pru@@ 1889
premium 1889
Bud@@ 1889
Funktion@@ 1889
ehrt 1889
wünscht 1888
funktionen 1888
vereinbarten 1888
starkes 1888
Unterzeichnung 1888
Anwesenheit 1888
COD 1887
Madeira 1887
gy@@ 1887
Southern 1887
subscribe 1887
kit 1887
Elevator 1887
einstellen 1887
gemütliche 1887
medizinischen 1887
effizienten 1887
gebunden 1887
aching 1886
Wireless 1886
eure 1886
frem@@ 1886
Gipfeltreffen 1886
Palestine 1885
Lev@@ 1885
tionary 1885
Der@@ 1885
Index 1885
Prot@@ 1885
Fast 1885
Schle@@ 1885
lokaler 1885
einnehmen 1885
Tabelle 1885
abkommens 1885
indicates 1884
habit@@ 1884
intelligence 1884
League 1884
Produktion@@ 1884
s.com 1884
Spektrum 1884
duration 1883
Location 1883
zunehmenden 1883
erörtert 1883
officially 1882
Library 1882
Hit@@ 1882
.ch 1882
Jahr@@ 1882
griffen 1882
Konflikt@@ 1882
Arbeitgeber 1882
Subventionen 1882
logistics 1881
Order 1881
Mar 1881
mün@@ 1881
orts 1880
generous 1880
Solutions 1880
Edi@@ 1880
ua 1880
här@@ 1880
vernünftige 1880
Liberal 1879
ager 1879
kel 1879
lei 1879
Fahrzeug 1879
leidet 1879
märkten 1879
bedauere 1879
yers 1878
wn@@ 1878
publications 1878
Will@@ 1878
Handy 1878
aufgeführt 1878
fare 1877
hydro@@ 1877
gesam@@ 1877
Satelliten@@ 1877
überwacht 1877
ambition 1876
140 1876
End 1876
tivi@@ 1876
Mehrwert 1876
eleganten 1876
chers 1875
Sto@@ 1875
SD 1875
zeichnung 1875
ktions@@ 1875
Energiepolitik 1875
höchster 1875
meldung 1875
bewirken 1875
Wälder 1875
superb 1874
featuring 1874
Terror@@ 1874
elen 1874
shuttle 1874
realize 1874
verzeichnen 1874
crops 1873
sport@@ 1873
Ros@@ 1873
Mode 1873
Inspek@@ 1873
sonstige 1873
senior 1872
aussehen 1872
derartigen 1872
Weine 1872
irische 1872
drafting 1871
emphasised 1871
ases 1871
brands 1871
Themen@@ 1871
geniessen 1871
Angriffe 1871
consistency 1870
rever@@ 1870
Kapazität 1870
Hä@@ 1869
W. 1869
verarbeitet 1869
Wichtig 1869
konstruktive 1869
tigem 1869
newspaper 1868
certificate 1868
Venezuela 1868
precision 1868
dated 1868
Slovenia 1868
Pot@@ 1868
CC 1868
wies 1868
wirksamen 1868
technologische 1868
alike 1867
tier 1867
purchasing 1867
motorway 1867
Tickets 1867
split 1866
ideally 1866
Cl@@ 1866
geplanten 1866
realisiert 1866
advise 1865
composed 1865
reform@@ 1865
Modern 1865
unt@@ 1865
teste 1865
wertung 1865
Ergänzung 1865
drives 1864
1,5 1864
ordnungsgemäß 1864
06@@ 1863
feste 1863
Einkommens@@ 1863
unterbreiten 1863
Scotland 1862
rage 1862
grad 1862
polnischen 1862
Personen@@ 1862
Fünf@@ 1862
dauern 1862
migrants 1861
ESS 1861
IR 1861
Mischung 1861
alu@@ 1860
lic 1860
felder 1860
Mails 1860
Palacio 1859
Communist 1859
perspectives 1859
d.@@ 1859
Äußerungen 1859
einzugehen 1859
acquis 1858
Schil@@ 1858
Köln 1858
respon@@ 1857
habt 1857
moderner 1857
Kaffe@@ 1857
Saal 1857
moves 1856
apparently 1856
revealed 1856
Parliamentary 1856
dog 1856
Class 1856
nete 1856
Konferenz@@ 1856
specially 1855
geistigen 1855
pic@@ 1854
TM 1854
Regimes 1854
blick 1854
kommun@@ 1854
Theorie 1854
ners 1853
synchron@@ 1853
1970 1853
sus 1853
schließe 1853
initiated 1852
1945 1852
interactive 1852
Halle 1852
Händler 1852
menge 1852
Konzentration 1852
threshold 1851
tough 1851
Schnell@@ 1851
Alp@@ 1851
precious 1850
regel@@ 1850
schlech@@ 1850
folglich 1850
Weltbank 1850
substantially 1849
rali@@ 1849
burger 1849
Village 1849
Schwarz@@ 1849
bezogen 1849
liegende 1849
interessanten 1849
warming 1848
1985 1848
Bergen 1848
BS 1848
Kabel 1848
contra@@ 1847
Got@@ 1847
29. 1847
Waffen@@ 1847
Sitzungen 1847
Unternehmer 1847
horizontal 1846
Ford 1846
Ass@@ 1846
gebäude 1846
regulate 1845
finances 1845
1987 1845
freu@@ 1845
Intel 1845
ungeh@@ 1845
vernünftig 1845
gelegenen 1845
schrittweise 1845
Kräften 1845
interinstitutional 1844
undertakings 1844
Güter 1844
Zuständigkeiten 1844
gement 1843
tened 1843
tangible 1843
aks 1843
spare 1843
kurzer 1843
vac@@ 1842
comprises 1842
pattern 1842
od 1842
punkten 1842
Kapazitäten 1842
Peace 1841
retail 1841
externe 1841
jemals 1841
blin@@ 1840
pack 1840
fik@@ 1840
Emissions@@ 1840
nachdenken 1840
Beschäftigten 1840
var@@ 1839
selb@@ 1839
erweiterten 1839
orientierten 1839
schnitt 1839
Citizens 1838
releases 1838
kleineren 1838
admi@@ 1837
Obviously 1837
Ideal 1837
atz 1837
Regen@@ 1837
ssen@@ 1837
Leiter 1837
verliehen 1837
utes 1836
hing 1836
lossen 1836
Wesen 1836
Objekt 1836
ethnischen 1836
verwirklichen 1836
Katastrophen 1836
Prävention 1836
posted 1835
Stan@@ 1835
sofa 1835
Bühne 1835
Augen@@ 1835
gebnis 1835
materi@@ 1834
fahrts@@ 1834
ax@@ 1834
EW@@ 1834
Trump 1834
ligkeit 1834
zielt 1834
wertvolle 1834
attended 1833
ped 1833
academic 1833
diving 1833
weitaus 1833
fron@@ 1832
replacement 1832
taxi 1832
gesichert 1832
Gut 1832
leichte 1832
wä@@ 1832
datei 1832
wife 1831
soli@@ 1831
nachhaltig 1831
Medikamente 1831
erwähnte 1831
eting 1830
schedule 1830
mass@@ 1830
Plätze 1830
23. 1830
ohnehin 1830
err@@ 1829
unterscheidet 1829
bende 1829
acquisition 1828
kurs 1828
vertreter 1828
grade 1827
structured 1827
pays 1827
rez 1827
fa 1827
Arti@@ 1827
ösen 1827
thro@@ 1826
dominant 1826
convince 1826
incentive 1826
ph 1826
But@@ 1826
eg 1826
slopes 1826
ax 1826
gebraucht 1826
einhalten 1826
wherever 1825
brau@@ 1825
Justiz@@ 1825
schein@@ 1825
feedback 1824
Milan 1824
organize 1824
excursions 1824
ütz@@ 1824
Subsidiarität 1824
essence 1823
fulfilled 1823
wahl 1823
expanding 1822
warmly 1822
tower 1822
plane 1822
Barack 1822
Erbe 1822
Datenschutz 1822
Optim@@ 1821
Sä@@ 1821
geschafft 1821
Produzenten 1821
wirkungs@@ 1821
realistisch 1821
findings 1820
yo 1820
bs@@ 1820
CAD 1820
krimin@@ 1820
Fremd@@ 1820
Türen 1820
confident 1819
heavily 1819
esa 1819
spots 1819
schu@@ 1819
späteren 1819
kommerziellen 1819
worry 1818
Force 1818
partnerships 1818
lights 1818
üh@@ 1818
Metro 1818
traum@@ 1818
viert 1818
Country 1817
ffs 1817
globalization 1817
transformation 1816
resp@@ 1816
Anzeige 1816
unterbreitet 1816
gains 1815
sanc@@ 1815
gewer@@ 1815
Mengen 1815
grenzüberschreitende 1815
chose 1814
travellers 1814
destinations 1814
Schö@@ 1814
demographic 1813
raises 1813
declarations 1813
cameras 1813
e.g 1813
erstreckt 1813
ratifiziert 1813
nonetheless 1812
ems 1812
Ke@@ 1812
terer 1812
Provi@@ 1812
pass@@ 1812
esten 1812
öffnet 1812
teilzunehmen 1812
gewünschte 1812
frequent 1811
poll@@ 1811
fortgesetzt 1811
bewiesen 1811
erörtern 1811
beiträgt 1811
antly 1810
Os@@ 1810
schnei@@ 1810
herum 1810
ausführlich 1810
specify 1809
minimal 1809
ski@@ 1809
Verein@@ 1809
Kongress 1809
kontrollen 1809
Funktionalität 1809
gewinnt 1809
sentence 1808
haf@@ 1808
Ausgangs@@ 1808
gewisser 1808
С@@ 1808
gültig 1808
tips 1807
eted 1806
streng 1806
abschließend 1806
busy 1805
Select 1805
Pum@@ 1805
Luggage 1805
eigentlichen 1805
Iraqi 1804
M. 1804
Nonetheless 1803
grand 1803
neg@@ 1802
CS@@ 1802
controlling 1802
connec@@ 1802
Spi@@ 1802
gerechnet 1802
Hoh@@ 1801
Vertrieb 1801
wording 1800
aring 1800
bre 1800
Cin@@ 1800
zog 1800
Heating 1800
Glas 1800
Bonus 1800
Seiten@@ 1800
igungen 1800
fears 1799
rupt 1799
Cast@@ 1799
ali 1799
camp@@ 1798
Organization 1798
Sant 1798
expressing 1797
talked 1797
eing 1797
Bonn 1797
Inn@@ 1797
Fitness 1797
Presse@@ 1797
Virus 1797
Wir@@ 1797
bisschen 1797
Angabe 1797
deutet 1797
atively 1796
Libya 1796
mail@@ 1795
Process 1795
Clubs 1795
Call 1795
tner 1795
verz@@ 1795
machten 1795
ruft 1795
Wachstums 1795
fate 1794
enlarged 1794
tels 1794
suggestion 1794
Part 1794
performing 1794
Gy@@ 1794
SMS 1794
issen 1794
Ordner 1794
termin@@ 1793
angewiesen 1793
Missbrauch 1793
beeinflusst 1793
announce 1792
Fun@@ 1792
dul@@ 1792
CP 1792
к@@ 1792
Ausblick 1792
Halb@@ 1792
verarbeitung 1792
erinnere 1792
twin 1791
Hung@@ 1791
crew 1791
jk 1791
tropical 1791
Präsentation 1791
rechtfertigen 1791
controversial 1790
sensor 1790
zzo 1790
unzu@@ 1790
größerer 1790
angeblich 1790
beurteilen 1789
eingeschränkt 1789
mäßigkeit 1789
Gipfels 1789
shortcomings 1788
handled 1788
dings 1788
pit@@ 1788
ava 1788
ruhige 1788
fiel 1788
abgel@@ 1788
auen 1788
älter 1788
Solche 1788
Konjunktur@@ 1788
fers 1787
pper 1787
Double 1787
lten 1787
sonstigen 1787
guard 1786
cit@@ 1786
dating 1786
eleg@@ 1786
kus@@ 1786
handed 1785
estimate 1785
Register 1785
patterns 1785
ure@@ 1785
Wellness@@ 1785
Libanon 1785
gestellte 1785
Arbeitnehmer@@ 1785
pole 1784
symp@@ 1784
creature 1784
verwal@@ 1784
schreibt 1784
Macedonia 1783
measuring 1783
meantime 1782
vention 1782
breaking 1782
pa 1782
Brau@@ 1782
finanzi@@ 1782
gefährliche 1782
einfach@@ 1782
toler@@ 1781
quelle 1781
Schnittstelle 1781
gefährlichen 1781
Release 1780
Tief@@ 1780
ausgestattete 1780
Tsch@@ 1780
etzen 1780
Lehren 1780
lesson 1779
Vermittlungs@@ 1779
restrict 1778
ingu@@ 1778
exchanges 1778
Work 1778
operative 1778
Holland 1778
transatlantic 1778
sunny 1778
vergleich@@ 1778
Palästinenser 1778
arrange 1777
dio@@ 1777
A3@@ 1777
Aktien@@ 1777
sech@@ 1777
Lasten 1777
technologischen 1777
EURO@@ 1776
exhibitions 1776
Rubrik 1776
aktu@@ 1776
typisch 1776
günstig 1776
Erfol@@ 1776
ermutigen 1776
oli@@ 1775
Daniel 1775
kritisiert 1775
eignen 1775
vorhin 1775
asses 1774
nec@@ 1774
chtige 1774
Dikt@@ 1774
eingeladen 1774
claimed 1773
mäßige 1773
grundlegender 1773
fährt 1773
wü@@ 1773
integral 1772
flying 1772
assured 1772
airline 1772
orien 1772
ärer 1772
sus@@ 1771
hef@@ 1771
Israels 1771
Leuten 1771
bekräftigt 1771
Gepäckraum 1771
prosec@@ 1770
Kreuz@@ 1770
teilte 1770
Merkmale 1770
Mittelmeerraum 1770
pursuant 1769
hypo@@ 1769
regrettable 1769
passion 1769
Milosevic 1769
Empire 1769
Woh@@ 1769
Termin 1769
Verträgen 1769
Istanbul 1768
anim@@ 1768
Zimbabwe 1768
körper@@ 1768
Schrift@@ 1768
itäten 1768
plötzlich 1768
Arbeitsbedingungen 1768
condemned 1767
unusual 1767
racism 1767
downloaded 1767
Arts 1767
motions 1766
bag 1766
stete 1766
Überarbeitung 1766
Clearly 1765
Finance 1765
dependence 1765
Büros 1765
Arzneimittel 1765
slowly 1764
creativity 1764
Lieb@@ 1764
Konzepte 1764
übermittelt 1764
Futter@@ 1764
t- 1763
Kul@@ 1763
Bü@@ 1763
evol@@ 1762
camps 1762
genetic 1762
sende 1762
trei@@ 1762
intense 1761
som@@ 1761
terminal 1761
such@@ 1761
Wort@@ 1761
erfasst 1761
gemütlichen 1761
Aufenthalts@@ 1761
qualifizierte 1761
Tragödie 1761
Vorfeld 1761
schalten 1761
ignored 1760
ops 1760
Nav@@ 1760
editor 1760
Stad@@ 1760
strengen 1760
Finanzmärkte 1760
alien 1759
prot@@ 1759
Contact 1759
Kü@@ 1759
Ministerrat 1759
Declaration 1758
gaining 1758
occurs 1758
Oc@@ 1758
Tö@@ 1758
Profil 1758
Netzwerk@@ 1758
sprech@@ 1758
rücken 1758
revolution@@ 1757
photographs 1757
Baden 1757
onds 1757
geld 1757
28. 1757
partei@@ 1757
bevorstehenden 1757
consequently 1756
preliminary 1756
ful@@ 1756
agen@@ 1756
26. 1756
Vorgaben 1756
tauchen 1756
unknown 1755
Budgetary 1755
mers 1755
ENT@@ 1755
Freizeit@@ 1755
onien 1755
LateRooms.com 1755
maximale 1755
Gebäuden 1755
avoided 1754
ial 1754
clothing 1754
Malaysia 1754
Armen 1754
Komit@@ 1754
projek@@ 1754
akzeptabel 1754
silence 1753
maps 1753
ester@@ 1753
Wille 1753
berichte 1753
Fluggesellschaften 1753
sätzen 1753
VE 1752
Traum 1752
Ferienwohnungen 1752
träge 1752
kostengünsti@@ 1752
umb@@ 1751
tac@@ 1751
nar@@ 1751
Technologies 1751
Bit@@ 1751
Lich@@ 1751
cache 1751
istischer 1751
FA@@ 1750
Olympus 1750
Tür@@ 1750
verbindungen 1750
ignoriert 1750
practically 1749
wake 1749
bak@@ 1749
Messe@@ 1749
leid 1749
spiegelt 1749
biological 1748
stran@@ 1748
adjust 1748
allies 1748
beschreibt 1748
küste 1748
hungen 1748
Spezialisten 1748
ungeachtet 1748
komfortablen 1748
erzielten 1748
direc@@ 1747
lowest 1747
Sup@@ 1747
outset 1747
ements 1747
е@@ 1747
klär@@ 1747
untergraben 1747
saf@@ 1746
notion 1746
caught 1746
beliebigen 1746
esischen 1746
bedienen 1746
mündlichen 1746
unerlässlich 1746
still@@ 1745
atten 1745
natur@@ 1745
Bewohner 1745
liberalen 1745
mäßigen 1745
Erzeuger 1745
platforms 1744
lehr@@ 1744
dachte 1744
leitungen 1744
Wiederauf@@ 1744
Abschluß 1744
Unterdrückung 1744
nes 1743
staying 1743
Kinnock 1743
Game 1743
9,@@ 1743
aufgerufen 1743
drinking 1742
victim 1742
Staatsan@@ 1742
Bab@@ 1741
Ach@@ 1741
Tempo 1741
vergeben 1741
rejection 1740
sustained 1740
statistical 1740
DI 1740
cop@@ 1740
Garten@@ 1740
Gute 1740
Bilanz 1740
verantwor@@ 1740
Beste 1739
grund@@ 1739
angenehme 1739
stoß 1739
discipline 1738
autonomy 1738
Albania 1738
Bill 1738
fitted 1738
Tech 1738
bahnen 1738
aturen 1738
pharmaceutical 1737
0s 1737
360 1737
icon 1737
Wirtschaf@@ 1737
änderung 1737
Armen@@ 1736
Muster 1736
Bildschirm 1736
forderte 1736
acknowledged 1735
Dest@@ 1735
300@@ 1735
Audio@@ 1735
theater 1735
fiziert 1735
basierte 1735
endem 1735
plätzen 1735
Legislativ@@ 1735
zweifel@@ 1735
womit 1735
typically 1734
infl@@ 1734
spätestens 1734
basierten 1734
äußerster 1734
samkeit 1734
bigen 1734
anc@@ 1733
stim@@ 1733
Wat@@ 1733
Bern@@ 1733
ähr@@ 1733
sexuellen 1733
Gerichtshofs 1733
gla@@ 1732
Rab@@ 1732
GE 1732
Quark 1732
Amtszeit 1732
sums 1731
po 1731
Kirk 1731
gesammelt 1731
unzureichend 1731
ago@@ 1730
ultra 1729
Typ@@ 1729
torture 1728
tery 1728
moderni@@ 1728
Renten@@ 1728
zige 1728
Konferenzen 1728
fold 1727
coverage 1727
Conditions 1727
Neues 1727
voneinander 1727
tlinie 1727
falschen 1727
zeu@@ 1727
bedenken 1727
gegenseitige 1727
inequality 1726
cancel 1726
ann 1726
izi@@ 1726
REACH 1726
Wes@@ 1726
empfiehlt 1726
instrumente 1726
exposure 1725
automation 1725
mals 1725
würdige 1725
spartner 1725
Konkurrenz 1725
Haushaltsplans 1725
whi@@ 1724
Communication 1724
tages 1724
Fair 1724
Bay@@ 1724
lica 1724
Tarifa 1724
ott 1724
diger 1724
Finanzmittel 1724
erläutern 1724
auswärtige 1724
tnis@@ 1723
Früh@@ 1723
nü@@ 1723
produkt 1723
erneuerbare 1723
survival 1722
arity 1722
tnissen 1722
Kooperations@@ 1722
rose 1721
sively 1721
ept 1721
Merkel 1721
eva 1721
Linien 1721
Fußball@@ 1721
zielen 1721
station@@ 1720
buses 1720
Look 1720
¼ 1720
quota 1719
reinforce 1719
Fir@@ 1719
thi@@ 1719
displays 1719
EV@@ 1719
Krieg@@ 1719
ranken 1719
gefäl@@ 1719
Gesprächen 1719
amend 1718
License 1718
reib@@ 1718
kritische 1718
begrenzte 1718
Vorsitzender 1718
estimates 1717
chief 1717
rob@@ 1717
Anbindung 1717
kei@@ 1717
verw@@ 1717
strenge 1717
Hotelsafe 1717
thei@@ 1716
istisch 1716
Verantwortlichen 1716
landschaft 1716
digte 1716
Reaktionen 1716
keen 1715
publicly 1715
Inf@@ 1715
ple 1715
у@@ 1715
gering@@ 1715
solide 1715
angebotenen 1715
versicherung 1715
kontinuierlich 1715
geführte 1715
Heimatland 1715
Meanwhile 1714
turing 1714
rub@@ 1714
bank@@ 1714
defense 1714
drucken 1714
teilten 1714
runde 1714
Kreativität 1714
Betroffenen 1714
Konsultation 1714
need@@ 1713
drafted 1713
cus 1713
boo@@ 1713
painting 1713
Lobby 1713
CH 1713
Gewerkschaften 1713
penalties 1712
tries 1712
1979 1712
boxes 1712
ausstattung 1712
wunderschöne 1712
hör@@ 1712
vielfältigen 1712
21st 1711
simplification 1711
Which 1711
Van@@ 1711
vig@@ 1711
Refer@@ 1711
impor@@ 1711
lighting 1711
mente 1711
voran 1711
blieb 1711
eless 1710
magic 1710
keeps 1710
glo@@ 1710
General@@ 1710
geladen 1710
Mazedonien 1710
einzubeziehen 1710
tain 1709
Learning 1709
fizi@@ 1709
Charme 1709
automatische 1709
ras@@ 1708
Koordin@@ 1708
beträchtliche 1708
Gefängnis 1708
failing 1707
literature 1707
Smith 1707
sor 1707
Adressen 1707
wäl@@ 1707
Indonesia 1706
ato@@ 1706
explains 1706
schlechten 1706
observers 1705
Panorama 1705
и 1705
Metall@@ 1705
Konfiguration 1705
dün@@ 1705
Branchen 1705
aggressive 1704
hoped 1704
licence 1704
Fair@@ 1704
Alpen 1704
differ 1703
oned 1703
monitored 1703
trennen 1703
fisch@@ 1703
enswert 1703
ernste 1703
aded 1702
tolerance 1702
alarm 1702
Francisco 1702
getötet 1702
fügt 1702
prestigious 1701
simplify 1701
Climate 1701
sheets 1701
wendungen 1701
verbesserte 1701
umfassen@@ 1701
Aktualisierung 1701
liter@@ 1700
ope 1700
isolated 1700
gia 1700
DIN 1700
sauber 1700
Gewal@@ 1700
Ratsvorsitzes 1700
measured 1699
indirect 1699
consult 1699
headquarters 1699
ös 1699
vorn 1699
Anhang 1699
confusion 1698
plate 1698
premises 1698
specifications 1698
holders 1698
ec 1698
wen 1698
Litauen 1698
lacking 1697
hesitate 1697
Technical 1697
arte 1697
Black@@ 1697
Terminal 1697
breit 1697
berufliche 1697
Aktien 1697
IL 1696
lot@@ 1696
oli 1696
erb@@ 1696
unlike 1695
flag 1695
California 1695
boden 1695
bewer@@ 1695
tisches 1695
leben@@ 1695
indication 1694
unfortunate 1694
respectively 1694
hire 1694
Wald 1694
enttäuscht 1694
negativ 1694
lichste 1694
stops 1693
Sul@@ 1693
Müller 1693
ow 1693
Easy 1693
Rahmenprogramm 1693
Textil@@ 1693
gerech@@ 1693
lion 1692
Galerie 1692
Zinsen 1692
abhängi@@ 1692
accepting 1691
Cit@@ 1691
eld 1691
Kn@@ 1691
Gestatten 1691
RE 1690
p.@@ 1690
Guinea 1690
receives 1689
bill 1689
settled 1689
copies 1689
Nom@@ 1689
Streit@@ 1689
fällig 1689
mithilfe 1689
recycling 1688
Experience 1688
Güter@@ 1688
skep@@ 1688
normale 1688
Unterlagen 1688
incorporate 1687
reale 1687
produzi@@ 1687
wör@@ 1687
Einschränkung 1687
Ähn@@ 1687
undertaking 1686
heated 1686
sty@@ 1686
inn 1686
Photo@@ 1686
Minibar 1686
Darin 1686
sichts@@ 1686
reductions 1685
gewünscht 1685
vorbehalten 1685
Lebensqualität 1685
Erfolgs@@ 1685
Aufforderung 1685
Tuesday 1684
reiterate 1684
thoroughly 1684
micro 1684
suff@@ 1684
etri@@ 1684
anz@@ 1684
gelegene 1684
problemlos 1684
einzuhalten 1684
reverse 1683
centrali@@ 1683
unlikely 1683
Eurostat 1683
Sili@@ 1683
FS 1683
о@@ 1683
kurzfristig 1683
detaillierte 1683
booked 1682
illing 1682
üt@@ 1682
Medizin 1682
quantitative 1681
domin@@ 1681
pact 1681
Four 1681
Aff@@ 1681
Bewegungen 1681
ältere 1681
decent 1680
ints 1680
steuerung 1680
hospital 1679
develops 1679
converted 1679
stant 1679
powered 1679
API 1679
belonging 1678
responses 1678
ground@@ 1678
actor 1678
erre@@ 1678
Gil@@ 1678
Techniken 1678
dokum@@ 1678
Innerhalb 1678
diversi@@ 1677
inu@@ 1677
Schön@@ 1677
Consulting 1677
ologisch 1677
kostenfrei 1677
UNG 1677
glei@@ 1677
ires 1676
consolidation 1676
sexu@@ 1676
Tam@@ 1676
SL 1676
droht 1676
geräten 1676
aktualisieren 1676
Everyone 1675
bid 1675
rid 1675
FOR 1675
complexity 1675
149 1675
Inv@@ 1675
tigungs@@ 1675
Geschäften 1675
zusehen 1675
geholfen 1675
collec@@ 1674
laser 1674
monuments 1674
&apos;d 1674
Apache 1674
gebühr@@ 1674
ruf 1674
zustellen 1674
Randlage 1674
pursuing 1673
closure 1673
economics 1673
disappointed 1673
surprising 1673
ouse 1673
teuer 1673
sement 1672
Change 1672
autom@@ 1672
Stamm@@ 1672
gesetzte 1672
Aktivität 1672
prozeß 1672
Palästina 1672
tari@@ 1671
Fas@@ 1671
expor@@ 1671
Dri@@ 1671
Ann@@ 1671
concerts 1671
zah@@ 1671
Freiwil@@ 1671
tiefe 1671
nern 1671
Scheitern 1671
infringement 1670
relaxed 1670
brech@@ 1670
alleine 1670
wartet 1670
Absichten 1670
lovers 1669
PK@@ 1669
tica 1669
utz@@ 1669
Süd 1669
tigte 1669
geschlagen 1669
keinesfalls 1669
defending 1668
exceptions 1668
ual 1668
Gulf 1668
wel 1668
stab@@ 1668
activ@@ 1668
forums 1668
kes@@ 1668
Gallery 1668
Rand 1668
pfung 1668
schnell@@ 1668
uring 1667
acquire 1667
schn@@ 1667
architectural 1667
promenade 1667
Gebühr 1667
verwalten 1667
Kredite 1667
Geben 1667
ausgewählten 1667
Wettbewer@@ 1667
ausgelöst 1667
deemed 1666
Hard@@ 1666
liert 1666
nieren 1666
alisierte 1666
konsolidi@@ 1666
fought 1665
pragmati@@ 1665
Andreas 1665
html 1665
Bewertungen 1665
hinaus@@ 1665
Lebensmitteln 1665
encies 1664
destabili@@ 1664
beginn@@ 1664
versi@@ 1664
Wissens@@ 1664
kamp@@ 1664
stücke 1664
gendes 1664
bildungs@@ 1664
aufgaben 1664
ues 1663
ees 1663
prim@@ 1663
3.0 1663
ingt 1663
orientiert 1663
Gespräch 1663
forming 1662
simul@@ 1662
catering 1662
Tunisia 1662
Stein 1662
halt@@ 1662
Luf@@ 1662
kräften 1662
alisierten 1662
snow@@ 1661
thal@@ 1661
EGF 1661
gän@@ 1661
Marktwirtschaft 1661
Kohärenz 1661
Reich 1660
belt 1660
Bridge 1660
See@@ 1660
Geräten 1660
Föderation 1660
owing 1659
strange 1659
constitu@@ 1659
tured 1659
Integrations@@ 1659
telling 1658
ensured 1658
anony@@ 1658
bom@@ 1658
Billi@@ 1658
movies 1658
SH@@ 1658
Metro@@ 1658
Transaktionen 1658
watching 1657
stecken 1657
frucht@@ 1657
Eigenschaft 1657
sailing 1656
evolution 1656
stays 1656
silver 1656
Lager@@ 1656
EMU 1655
450 1655
anna 1655
Geschäft@@ 1655
schläge 1655
nov@@ 1654
irs 1654
Trends 1654
änen 1654
vierte 1654
bili@@ 1653
underline 1653
gle@@ 1653
manifest@@ 1653
book@@ 1653
erläutert 1653
Auslegung 1653
tackling 1652
Start@@ 1652
Schlaf@@ 1652
fizierungs@@ 1652
Quoten 1652
Einzelnen 1652
Berichterstattern 1652
respecting 1651
quot@@ 1651
cali@@ 1651
Diplom@@ 1651
trains 1651
wur@@ 1651
Panasonic 1651
LAN@@ 1651
Ost 1651
aces 1650
rom 1650
Maxim@@ 1650
polis 1650
ministerium 1650
Gegenwart 1650
kreis 1650
kritisch 1650
Zahn@@ 1650
Vermittlung 1650
Jugoslawien 1650
koh@@ 1649
empfin@@ 1649
favourite 1648
RI 1648
Editor 1648
Herrschaft 1648
ökologische 1648
plain 1647
ily 1647
8,@@ 1647
Künstler@@ 1647
nutzbar 1647
Sowjetunion 1647
herstellen 1647
demonstration 1646
heik@@ 1646
Initi@@ 1646
HS 1646
erh@@ 1646
fried@@ 1646
größe 1646
Instrumenten 1646
EWG 1646
Wetter 1646
Hence 1645
Spring 1645
beschei@@ 1645
Gerichten 1645
vermögen 1645
Zwangs@@ 1645
interaction 1644
noticed 1644
shareholders 1644
arri@@ 1644
entries 1644
öff@@ 1644
irgendwo 1644
badly 1643
artificial 1643
Ten@@ 1643
Ersatz@@ 1643
Wirk@@ 1643
Getränke 1643
stärkeren 1643
interim 1642
backed 1642
400@@ 1642
en.@@ 1642
Reader 1642
meldungen 1642
executed 1641
backs 1641
enza 1641
Tot@@ 1641
mie 1641
erischen 1641
Fes@@ 1641
örtlichen 1641
Migrations@@ 1641
Gemäß 1641
teilgenommen 1641
Radi@@ 1640
lis 1640
schluss 1640
räum@@ 1640
Innovations@@ 1640
Dienstleistung 1640
ausgewogenen 1640
accepts 1639
governed 1639
Everything 1639
dium 1639
Vir@@ 1639
PCs 1639
sandy 1639
Gärten 1639
Kabel@@ 1639
Entwicklungszusammenarbeit 1639
endgültig 1639
statten 1639
shel@@ 1638
Speed 1638
workshops 1638
Route 1638
blatt 1638
Drive 1638
treff@@ 1638
gewählte 1638
compare 1637
secured 1637
EEC 1637
semi 1637
alog@@ 1637
mp 1637
staat@@ 1637
änder@@ 1637
Verstärkung 1637
Kernkraft@@ 1637
0er 1637
Jahrzehnte 1637
denied 1636
18th 1636
regierung 1636
bearbeitet 1636
achtet 1636
Tschechischen 1636
vereinfachen 1636
abzielen 1636
survive 1635
implies 1635
circle 1635
ados 1635
büro 1635
führungen 1635
effektiver 1635
irgendwelche 1635
teure 1635
hear@@ 1634
stry 1634
compar@@ 1634
Leh@@ 1634
arische 1634
feiern 1634
zell@@ 1634
englischen 1634
Verkehr@@ 1634
fehler@@ 1634
qualifizierten 1634
Komplettpreise 1634
formul@@ 1633
continuation 1633
inquiry 1633
Az@@ 1633
Fat@@ 1633
3rd 1633
vertre@@ 1633
räu@@ 1633
Schne@@ 1633
Banken@@ 1633
Sozialdemokraten 1633
exceed 1632
founding 1632
workshop 1632
Sie@@ 1632
asen 1632
erfolgte 1632
Freuen 1632
decre@@ 1631
RS 1631
tial 1631
ku 1631
Poker@@ 1631
Flugzeuge 1631
Capital 1630
ablen 1630
Indem 1630
übergeben 1630
Vertei@@ 1630
Staff 1629
G8 1629
Word 1629
Marken@@ 1629
mitgeteilt 1629
gebilligt 1629
describes 1628
hed 1628
Above 1628
pho@@ 1628
tile 1628
Rep@@ 1628
kö@@ 1628
Shanghai 1628
Provence 1628
Weiterbildung 1628
begangen 1628
fenster 1628
Umsatz 1628
Sus@@ 1627
Herr@@ 1627
Konstruktion 1627
chtig 1627
benden 1627
Insel@@ 1627
lehnen 1627
gefangen 1627
eigenem 1627
Гј@@ 1627
interpre@@ 1626
bun@@ 1626
proximity 1626
churches 1626
tus 1626
CL@@ 1626
stechnik 1626
Opfern 1626
degrees 1625
choosing 1625
nat@@ 1625
May@@ 1625
downloading 1625
Vari@@ 1625
griff 1625
eingebunden 1625
Lehre 1625
ambitions 1624
Right 1624
backing 1624
projec@@ 1624
PRO 1624
Cubase 1624
vielsei@@ 1624
portugiesischen 1624
verhandeln 1624
grants 1623
Santiago 1623
essi@@ 1623
Domain 1623
konfli@@ 1623
Arbeiter 1623
fertigt 1623
steigenden 1623
holes 1622
nei@@ 1622
Dritter 1622
registriert 1622
konzept 1622
ausführen 1622
verehrten 1622
prakti@@ 1621
durchgeführten 1621
conjunction 1620
profound 1620
cla@@ 1620
iel 1620
chter@@ 1620
kunden@@ 1620
Zimmerservice 1620
Erkenntnisse 1620
hilfen 1620
klarer 1620
zurückkehren 1620
mot@@ 1619
battery 1619
einzelstaatlichen 1619
Stabilitäts- 1619
dges 1618
Solar@@ 1618
Zufriedenheit 1618
wenigstens 1618
auszuüben 1618
pan 1617
dominated 1617
fires 1617
Kle@@ 1617
gutem 1617
Soweit 1617
SIS 1616
wra@@ 1616
Cold 1616
aster 1616
D. 1616
disch 1616
werks 1616
friedlichen 1616
Tower 1615
sound@@ 1615
alogue 1615
neo@@ 1615
herauszu@@ 1615
ords 1614
capture 1614
accommodate 1614
adjusted 1614
phi@@ 1614
hä@@ 1614
edit 1614
fach 1614
Anwen@@ 1614
fiable 1613
Sky@@ 1613
Boot@@ 1613
Frühjahr 1613
gesunden 1613
gewachsen 1613
rel 1612
CNS 1612
divi@@ 1612
Lad@@ 1612
ASEAN 1612
Interface 1612
fak@@ 1612
versehen 1612
Französisch 1612
schieben 1612
tening 1611
Mountain 1611
Bit 1611
SW@@ 1611
27. 1611
Mitglieds@@ 1611
alliance 1610
PER@@ 1610
Cala 1610
enorm 1610
gesellschaftliche 1610
niedriger 1610
denselben 1610
delicate 1609
gence 1609
neo 1609
seiten 1609
Renaissance 1609
ahn 1609
kos 1609
schein 1609
genehmigt 1609
Investition 1609
erfahr@@ 1609
schlage 1609
entscheidet 1609
befürworte 1609
Supp@@ 1608
nel 1608
column 1608
GU@@ 1608
izing 1608
zten 1608
Legitimität 1608
bases 1607
skilled 1607
racing 1607
milit@@ 1607
foods 1607
sporting 1607
lah 1607
agentur 1607
zusammenzuarbeiten 1607
bewertung 1607
ired 1606
clearer 1606
listened 1606
brain 1606
bene 1606
favorite 1606
passende 1606
characterised 1605
Saf@@ 1605
währ@@ 1605
Strasse 1605
komplex 1605
harmony 1604
enta 1604
Pit@@ 1604
kali@@ 1604
е 1604
Sonn@@ 1604
rechn@@ 1604
angefangen 1604
ürzt 1604
moderate 1603
ray 1603
jet 1603
Neg@@ 1603
File 1603
trauri@@ 1603
beeinträchtigt 1603
unprecedented 1602
tious 1602
mile 1602
lichkeits@@ 1602
elemente 1602
Fehlen 1602
Überwachungs@@ 1602
Norway 1601
shaped 1601
spre@@ 1601
oberen 1601
Meister@@ 1601
abolition 1600
aking 1600
GBP 1600
ssa 1600
IE 1600
analysieren 1600
Zins@@ 1600
struc@@ 1599
landes 1599
Alltag 1599
Miet@@ 1599
Optimierung 1599
lässig@@ 1599
ehen 1599
Gesellschafts@@ 1599
Partnerschaften 1599
controller 1598
ood 1598
iti 1598
rem 1598
Light 1598
Niemand 1598
Kluft 1598
Kommissare 1598
prob@@ 1597
black@@ 1597
Anweisungen 1597
Aro@@ 1597
EE@@ 1597
org@@ 1597
messe 1597
berechtigten 1597
Beobachter 1597
Flugzeug 1597
netz@@ 1597
jährliche 1597
angeschlossen 1597
hard@@ 1596
sar@@ 1596
hosts 1596
Kop@@ 1596
sitz@@ 1596
ulen 1596
Heil@@ 1596
Pflege 1596
Unterhaltung 1596
flug 1596
charakter@@ 1596
Empfänger 1596
Entschließungen 1596
appreciated 1595
rubber 1595
eu 1595
Boo@@ 1595
zia 1595
cio 1595
FOR@@ 1595
ě@@ 1595
Zit@@ 1595
angelegt 1595
Beruf 1595
niederländischen 1595
minds 1594
doctors 1594
grat@@ 1594
Studios 1594
Kongres@@ 1594
Inneres 1594
Organen 1594
accountability 1593
challenging 1593
discrimin@@ 1593
TC 1593
lem 1593
Soft 1593
Taste 1593
Features 1593
bereitung 1593
Realisierung 1593
kehren 1593
Vorsitzende 1593
konzipiert 1593
einzel@@ 1593
tape 1592
excellence 1592
Conc@@ 1592
Alber@@ 1592
Jung@@ 1592
ausgesch@@ 1592
geführten 1592
Armuts@@ 1592
immense 1591
adher@@ 1591
securities 1591
ader 1591
Christdemokraten 1591
guidance 1590
inations 1590
refugee 1590
Glo@@ 1590
heu@@ 1590
t.@@ 1590
eingereichten 1590
coinci@@ 1589
prev@@ 1589
tells 1589
sos 1589
tailored 1589
activated 1589
BE@@ 1589
einzelner 1589
Ferien 1589
steckt 1589
invitation 1588
authorisation 1588
Tut@@ 1588
ées 1588
sand@@ 1588
Breit@@ 1588
ignorieren 1588
schlimmer 1588
einzurichten 1588
prohibited 1587
deny 1587
Antonio 1587
Display 1587
komp@@ 1587
sämtlichen 1587
sson 1586
tons 1586
Seen 1586
J. 1586
Bell@@ 1586
Sevilla 1586
Direk@@ 1586
Motto 1586
banned 1585
bone 1585
than@@ 1585
3000 1585
Rand@@ 1585
Tourismus@@ 1585
verstoßen 1585
Effekte 1585
Pierre 1584
tas 1584
anne 1584
ost@@ 1584
kro@@ 1584
д@@ 1584
Koordination 1584
namen 1584
Libyen 1584
hoc 1583
conver@@ 1583
dent@@ 1583
Analysen 1583
schaden 1583
agent 1582
requiring 1582
Avi@@ 1582
block@@ 1582
Anna 1582
1984 1582
kap@@ 1582
unterwegs 1582
antrag 1582
Key 1581
birds 1581
dangers 1581
Chan@@ 1581
Patent 1581
unde 1581
Baby@@ 1581
Konflikts 1581
durchsetzen 1581
temperatures 1580
nic@@ 1580
INTER@@ 1580
signature 1580
Moldova 1580
William 1580
Leu@@ 1580
weiterzu@@ 1580
currencies 1579
authentic 1579
Feld@@ 1579
fahrten 1579
Feier@@ 1579
nütz@@ 1579
reduces 1578
partition 1578
Rol@@ 1578
tec 1578
gegenüber@@ 1578
beschreiben 1578
verwaltet 1578
reads 1577
departments 1577
enters 1577
announcement 1577
Brow@@ 1577
Choose 1577
Snow@@ 1577
Wiener 1577
Geschlechter 1577
bezogene 1577
gerichtete 1577
Aufnahmen 1577
Zugangs 1577
seekers 1576
chens 1576
ret 1576
Shops 1576
gegenseitig 1576
passes 1575
endor@@ 1575
Naturally 1575
Lar@@ 1575
linguistic 1575
ium 1575
Moskau 1575
assessments 1574
cum@@ 1574
Stadium 1574
Ibiza 1574
Genuss 1574
japanischen 1574
schützt 1574
interessieren 1574
Heiligen 1574
längst 1574
Hektar 1574
rot 1573
Stei@@ 1573
ypen 1573
rasche 1573
Ein- 1573
aufrechterhalten 1573
esi@@ 1572
ansonsten 1572
champ@@ 1571
Pur@@ 1571
Timor 1571
expan@@ 1571
loses 1571
stens 1571
Dev@@ 1571
EST 1571
District 1571
aufweisen 1571
wachsen@@ 1571
kommens 1571
Abstimmungen 1571
teacher 1570
Head 1570
gon@@ 1570
Rub@@ 1570
samen 1570
Bedingung 1570
wenigsten 1570
gewiss 1570
exec@@ 1569
searching 1569
branches 1569
brutal 1569
ules 1569
Zü@@ 1569
xx 1569
Schwe@@ 1569
Bezahlung 1569
Schatten 1569
digten 1569
wofür 1569
roughly 1568
thoughts 1568
pas 1568
celebrate 1568
engineers 1568
multimedia 1568
68@@ 1568
Ehr@@ 1568
hte 1568
türkische 1568
alitäten 1568
gäbe 1568
Weißbuch 1568
invested 1567
plates 1567
visitor 1567
realisieren 1567
süd@@ 1567
Gesetzes 1567
sicherheits@@ 1567
Inform@@ 1566
situ@@ 1566
ärm@@ 1566
kultur 1566
traum 1566
händler 1566
stärkt 1566
ergy 1565
bility 1565
Alpine 1565
.- 1565
ind@@ 1565
konstruktiven 1565
Beendigung 1565
Slowenien 1565
reiben 1565
verankert 1565
damaged 1564
Abu 1564
seg@@ 1564
Nar@@ 1564
schungen 1564
effektiven 1564
gefasst 1564
fault 1563
pol 1563
stood 1563
preferences 1563
Roll@@ 1563
zigen 1563
[...]
